् 3403318
। 1081244
के 724438
है 716357
में 616189
की 505092
, 434754
और 351779
. 349370
को 343258
़ 342593
ने 330989
से 314920
प 295652
हैं 257393
का 256784
पर 244134
नहीं 210966
स 206679
भी 192032
इस 187391
क 185464
कर 184553
ट 182041
कि 160182
एक 150537
लिए 142015
र 135291
री 127596
किया 121773
य 120072
यह 117681
उन 115300
या 114875
हो 114199
‍ 106908
पुलिस 105545
ज 103979
गया 102400
ही 102141
त 100852
न 99078
था 94137
व 92516
&quot; 87250
म 86996
बाद 81768
( 79729
) 79319
द 76107
कहा 75897
साथ 72930
करने 69802
होंने 68103
दिया 67193
कार 65915
दी 64693
तो 64041
भारत 63542
वह 62925
? 61269
श 59877
गई 59845
कोई 59261
र@@ 57698
रही 57211
इसके 56716
जा 56447
ड 55801
लोगों 51861
हम 51723
रहा 51714
रहे 51035
अपने 50633
थे 50320
ली 49338
ये 48778
थी 48545
ल 47546
कुछ 47373
ता 47068
वर 46754
यक 46041
ग 45137
ष 45004
क@@ 44692
लेकिन 44646
- 44614
जो 44591
: 44364
फ 44332
मैं 43714
तक 42397
हें 42243
गए 41600
सरकार 41499
न@@ 41448
फिल 40547
म@@ 40514
राज 40410
ी 40308
मामले 40166
ा 40108
हुए 38977
-@@ 38818
अ@@ 38377
लिया 37448
स@@ 37122
उनके 37020
ना 36972
ती 36951
रधानमंत 36874
आ@@ 36229
ब 35985
मंत 35814
बात 35719
वे 35556
दोनों 35341
दर 35311
तान 34938
देश 34813
दो 34773
किसी 34649
हुआ 34614
कई 33995
मोदी 33639
यों 33543
पहले 32917
रेस 32820
य@@ 32645
इन 32005
ल@@ 31619
लोग 31549
करते 31502
ं@@ 31227
े 31170
हुई 31005
प@@ 30890
ध 30653
रा@@ 30537
त@@ 30501
काम 30290
द@@ 30215
बहुत 29880
‘ 29746
ए@@ 29669
बढ 29573
तरह 29472
&apos; 29383
सभी 29201
घटना 29191
ज@@ 28919
षा 28899
वि@@ 28797
राष 28753
अपनी 28718
रि@@ 28664
जांच 28561
ले 28550
ब@@ 28433
नी 28429
ला@@ 28091
ते 27741
ना@@ 27598
उसके 27193
इससे 27146
टी 27016
आप 26884
ति 26872
हालांकि 26872
कांग 26725
अभी 26616
वा@@ 26506
निर 26443
रे@@ 26381
तुम 26336
बड 26181
उसे 26015
व@@ 25988
होने 25840
ट@@ 25705
मुख 25593
का@@ 25232
पूर 25159
दिल 25136
रा 25086
करना 25017
रीय 24870
भारतीय 24762
समय 24733
चाहिए 24667
ऐसा 24536
उनकी 24419
पा@@ 24350
खिलाफ 24060
मौके 24028
बा@@ 23858
सा@@ 23831
फिर 23785
रो@@ 23723
शुरू 23628
ग@@ 23587
लेकर 23561
पाकिस 23418
हूं 22965
ख 22939
मा 22932
ला 22884
टर 22824
मौत 22782
बच 22694
सिंह 22654
सकता 22638
जब 22530
उत 22459
बारे 22369
ह@@ 22161
रों 22135
तर 21917
सकते 21897
अस 21879
होगा 21824
वास 21705
रूप 21473
दे 21460
च@@ 21417
सी 21388
इसमें 21327
सं@@ 21009
बार 20979
बीच 20956
मुझे 20816
“ 20758
शामिल 20745
अन 20632
काफी 20621
अध 20524
” 20390
या@@ 20327
थ 20307
तार 20279
श@@ 20274
सु@@ 20269
हर 20206
पड 20111
विश 20028
इ@@ 19997
भाजपा 19988
शन 19806
गिरफ 19789
वाले 19769
पत 19724
पास 19564
मा@@ 19537
नि@@ 19472
ड@@ 19227
जारी 19182
च 19147
पी@@ 18978
हमें 18926
अच 18913
उ@@ 18790
मु@@ 18773
ण 18685
सर 18667
जी 18600
जा@@ 18592
पताल 18584
लि@@ 18576
करता 18521
उस 18490
रक 18452
षेत 18437
ले@@ 18415
सबसे 18355
’ 18332
सी@@ 18316
सि@@ 18205
होता 18181
इसे 18175
टीम 18072
करें 17998
तीन 17799
फ@@ 17314
ए 17259
रदेश 17180
दौरान 17088
किए 17075
जानकारी 16985
बल 16902
यू@@ 16747
ख@@ 16687
दिन 16673
बताया 16663
बे@@ 16618
भर 16519
जल 16493
जाएगा 16463
ें 16430
ा@@ 16418
आ 16346
सूचना 16327
पार 16292
मीडिया 16173
मार 16137
मि@@ 16129
एवं 16015
हमारे 15978
दा@@ 15919
यहोवा 15725
खान 15683
यमंत 15649
आरोपी 15644
सा 15643
ता@@ 15640
वारा 15635
उसकी 15534
इसका 15337
केंद 15313
इसकी 15189
मी 15166
बि@@ 15125
सब 15095
नाम 15033
मामला 14864
रम 14818
जाता 14800
उसने 14770
यादा 14765
मान 14763
ों 14643
सुरक 14610
कारण 14576
घर 14562
कम 14499
मे@@ 14418
कु@@ 14343
यहां 14343
चल 14282
आज 14257
को@@ 14223
कि@@ 14221
हा@@ 14148
से@@ 14123
वहीं 14071
तों 14060
रपति 14049
चुनाव 14026
घायल 14011
जाने 13937
री@@ 13802
कोर 13775
पूरी 13706
गांधी 13695
चा@@ 13693
उम 13672
नरेंद 13640
ई 13617
पता 13559
ई@@ 13548
परमेश 13480
यात 13436
ि@@ 13436
ओ@@ 13430
ऐसे 13393
वो 13390
ने@@ 13355
सम 13340
टी@@ 13295
उनका 13212
सोशल 13171
बी@@ 13107
जी@@ 13097
वीडियो 13073
आई 13034
कों 12987
चार 12978
मदद 12975
परिवार 12927
आपको 12792
बर 12769
भ@@ 12764
ति@@ 12735
गु@@ 12698
दि@@ 12691
अलावा 12663
हि@@ 12657
के@@ 12623
! 12597
होगी 12491
चे 12484
देने 12426
बीजेपी 12359
जि@@ 12272
लड 12231
इसलिए 12226
ह 12206
रवाई 12179
कभी 12151
मो@@ 12118
दा 12117
कैसे 12114
मेरे 12105
थान 12042
थिति 11974
कप 11944
नों 11940
होती 11817
शर 11798
गा@@ 11794
खा@@ 11757
अपना 11753
वजह 11744
महिला 11648
दुनिया 11628
आगे 11611
अगर 11486
राम 11414
चर 11402
वाली 11306
करेंगे 11292
मैंने 11251
रिया 11235
षण 11211
ध@@ 11207
चा 11185
थ@@ 11132
हमने 11129
ली@@ 11094
आर 11087
सकती 11085
ंग@@ 11084
ओर 11039
मीर 11012
तथा 10951
वक 10940
शि@@ 10914
वी 10907
हत 10834
राहुल 10751
वी@@ 10712
डि@@ 10694
नई 10649
अब 10641
बु@@ 10624
हादसे 10622
डी@@ 10557
सो@@ 10549
आई@@ 10545
ो 10545
नजर 10508
नी@@ 10489
संस 10469
उद 10431
यान 10431
तब 10399
सामने 10380
पोस 10313
रदर 10300
जन 10285
मन 10279
5 10271
बैठक 10238
छात 10232
अर 10209
े@@ 10181
आरोपियों 10173
दूसरे 10148
विकास 10133
अधिक 10131
रत 10109
बन 10095
आने 10079
रस 10036
आग 10004
कल 9984
शिक 9979
मौजूद 9978
पुर 9977
लो@@ 9949
यो@@ 9935
एं 9893
कुमार 9875
घ@@ 9862
रू@@ 9856
अल 9849
कपूर 9799
छा 9791
उप@@ 9782
फिलहाल 9751
सच 9747
शा@@ 9737
1 9701
नेता 9653
पानी 9583
रु@@ 9578
हमारी 9578
पहली 9537
संख 9519
रह 9511
वे@@ 9496
जाएगी 9469
ित 9444
शिकायत 9421
जैसे 9393
जिसके 9372
जवाब 9356
हाल 9355
पूरे 9352
डे@@ 9322
कर@@ 9312
ंग 9273
जीवन 9261
थित 9261
पढ 9261
गो@@ 9253
दिए 9245
पु@@ 9224
जो@@ 9221
वहां 9203
हिस 9194
भा@@ 9190
ठ 9187
वार 9184
गंभीर 9160
गर 9156
गि@@ 9150
बी 9138
जे@@ 9133
एस@@ 9129
ंस 9108
इसी 9108
फि@@ 9100
पूरा 9062
उसका 9050
सिर 9041
महत 9036
फैसला 8991
रालय 8935
लगा 8903
2 8889
यार 8889
यही 8874
मैच 8862
इंडिया 8857
मगर 8851
तरफ 8845
दिनों 8773
3@@ 8767
रे 8759
ी@@ 8759
टा@@ 8734
अनु@@ 8692
देशों 8674
पी 8634
शव 8610
जीत 8594
समस 8591
हार 8586
ज़@@ 8570
— 8531
टे@@ 8524
आरोप 8523
हमले 8490
वाला 8457
भाग 8449
टि@@ 8406
जिन 8400
शक 8392
मिल 8388
होंगे 8374
ठ@@ 8365
टम 8353
जु@@ 8343
यू 8338
ँ@@ 8308
लें 8295
गयी 8260
मिला 8259
पा 8242
मिली 8223
लों 8223
योग 8218
पै@@ 8214
डी 8183
पिता 8149
चों 8147
मत 8146
एम@@ 8138
पे@@ 8131
एस 8112
दे@@ 8106
संबंध 8104
मै@@ 8094
ष@@ 8093
पहुंची 8090
कराया 8060
ण@@ 8038
टा 8032
ु@@ 8027
रिपोर 8013
बस 8010
धर 7994
सदस 7989
पक 7971
कश 7969
बाइबल 7967
समर 7957
कै@@ 7951
बो@@ 7941
धन 7932
ते@@ 7910
आए 7898
4@@ 7875
एन@@ 7874
रिकेट 7867
चुके 7852
तस 7838
पि@@ 7803
यम 7792
.@@ 7780
मेरी 7772
पो@@ 7754
आया 7752
अधिकारी 7748
बंद 7710
बनाने 7707
वित 7702
सन 7691
यीशु 7687
चित 7678
तौर 7652
होते 7645
चुकी 7644
करती 7625
थीं 7622
ऐसी 7619
करण 7618
सेना 7592
शेयर 7586
छोड 7575
3 7560
a@@ 7554
रह@@ 7524
पहुंच 7520
सेवा 7472
खुद 7460
लैंड 7432
मिक 7429
मुद 7428
5@@ 7419
पीएम 7411
झ@@ 7388
छ@@ 7361
मों 7359
मांग 7344
मुंबई 7334
वा 7333
अवसर 7328
ओं 7316
बना 7315
बॉलीवुड 7289
दक 7273
शाह 7255
है@@ 7252
कार@@ 7247
जम 7240
मी@@ 7239
नए 7237
मान@@ 7224
आपके 7197
फोन 7180
कड 7179
/ 7176
डर 7175
s 7171
रमुख 7141
बाहर 7139
4 7134
रकार 7130
कब 7125
सत 7121
धि 7106
सही 7102
जबकि 7094
दें 7094
अलग 7072
फे@@ 7050
यवस 7047
टेस 7045
ार 7036
p@@ 7031
आर@@ 7022
जरूरत 7019
जिसमें 7019
i@@ 7016
वायरल 7015
भारी 7010
तैयार 7006
नो@@ 7006
पश 6988
योंकि 6972
ऑफ 6970
किस 6964
ंड 6950
अमेरिका 6929
बयान 6920
जिस 6904
राज@@ 6902
s@@ 6895
दों 6872
अक 6868
हो@@ 6858
छी 6821
खु@@ 6801
कॉ@@ 6800
पाया 6787
खे@@ 6783
ू@@ 6769
कौन 6767
जाती 6761
कोशिश 6749
भ 6744
चे@@ 6743
डा@@ 6743
सुप 6731
चीन 6728
हे@@ 6716
विरोध 6703
नर 6701
ठीक 6700
ियों 6698
भाई 6696
लक 6696
जाना 6694
होना 6665
परीक 6662
जर 6661
कहना 6627
यत 6627
लगातार 6610
रॉ@@ 6588
दु@@ 6579
ताओं 6575
षित 6567
पति 6558
सड 6506
दी@@ 6500
विभाग 6492
परिजनों 6482
जिससे 6453
यालय 6452
लाह 6451
आत 6447
यर 6443
इं@@ 6439
ो@@ 6434
रीम 6431
ू 6429
मध 6424
अप@@ 6416
दुर 6398
नरेन 6396
हमेशा 6395
उपलब 6387
पद 6380
पिछले 6371
ओ 6364
चि@@ 6355
विद 6354
बैंक 6352
माण 6345
ती@@ 6334
तलाश 6325
इलाज 6322
इनमें 6308
सू@@ 6287
जाए 6286
दार 6280
खबर 6271
रहने 6258
फरार 6245
टि 6227
वस 6223
सर@@ 6208
गी 6197
जगह 6195
0@@ 6183
मर 6182
पांच 6180
चाहते 6168
विस 6163
7@@ 6147
6 6141
था@@ 6140
इंस 6136
शादी 6125
योजना 6122
जिम 6120
6@@ 6092
ाई 6092
वालों 6091
ंद 6084
दूर 6080
राप 6078
चुका 6065
भूमिका 6065
कूल 6040
जे 6031
सवाल 6022
ंट 6020
जिला 6020
केन 6019
दो@@ 6011
ु 6010
जहां 6002
रखा 5996
t@@ 5981
महा@@ 5978
ञान 5971
आधार 5968
यन 5967
वीट 5959
… 5956
भू@@ 5952
पीछे 5944
जिले 5943
रोल 5933
करके 5930
भेज 5926
अधिकारियों 5919
बै@@ 5919
दू@@ 5907
करोड 5893
महाराष 5888
कानून 5881
ऑ@@ 5878
परि@@ 5867
e@@ 5859
यी 5859
अं@@ 5837
उनसे 5837
केस 5837
हालत 5835
मक 5833
o@@ 5832
आवश 5817
मद 5805
रिश 5803
वै@@ 5803
7 5800
तेमाल 5793
मेरा 5773
जाते 5762
रयास 5745
जनता 5724
राइ@@ 5715
लगे 5710
मिलने 5682
ै@@ 5680
बेहद 5679
8 5676
लगी 5675
सक 5665
देता 5639
c@@ 5638
एँ 5638
रियों 5634
सलमान 5629
टो@@ 5627
जान 5625
2@@ 5623
सहयोग 5619
विभिन 5618
दोस 5604
बेटी 5597
फर 5595
इस@@ 5594
उससे 5592
जुड 5583
लिये 5582
साल 5576
बिल 5558
बर@@ 5556
रख@@ 5554
रण 5549
देखा 5529
गत 5525
विशेष 5513
करेगा 5503
ीं 5503
अमित 5501
रद 5500
टमार 5499
इलाके 5498
हिरासत 5487
थानीय 5485
हूँ 5483
आदेश 5480
छे 5479
की@@ 5462
यु@@ 5455
कदम 5450
हों 5448
देते 5447
रो 5436
तहत 5422
किसानों 5409
क़@@ 5409
ार@@ 5399
लेने 5385
साफ 5384
यां 5347
u@@ 5338
रदान 5330
कुल 5329
ड़ 5322
शहर 5318
अन@@ 5313
भविष 5302
रति 5302
अनुसार 5293
नगर 5293
जन@@ 5292
ंड@@ 5279
लोकसभा 5278
बारिश 5274
m@@ 5266
गा 5262
चालक 5258
लिखा 5258
सामना 5257
ढ@@ 5256
पेश 5252
चाहता 5249
पन 5246
मुताबिक 5240
तन 5231
घायलों 5227
डॉक 5226
हारे 5207
रात 5200
याद 5196
ंगी 5193
लगता 5170
कोहली 5152
सार 5137
अंतर 5136
रति@@ 5135
वपूर 5133
d@@ 5132
8@@ 5131
तियों 5128
देना 5122
औ@@ 5114
जिसे 5113
ं 5105
ची 5082
फा@@ 5065
राजस 5061
पीड 5047
हासिल 5042
सम@@ 5037
हाथ 5037
मे 5029
लाख 5029
पकड 5019
रता 5014
ऑस 5012
चलते 5012
शी 5009
चौ@@ 4978
पसंद 4974
बेटे 4971
हर@@ 4968
थल 4964
मां 4948
अप 4933
चु@@ 4930
विदेश 4930
थिक 4929
ढ 4925
थन 4922
धा@@ 4912
ड़@@ 4900
टन 4898
सिद 4890
जान@@ 4885
चिम 4877
मृत 4865
ुदा 4862
ताकि 4853
विधानसभा 4851
लग 4844
जेल 4843
दूसरी 4828
हमारा 4828
उसी 4826
केवल 4825
बातचीत 4819
रखने 4819
रन 4809
विज 4803
उल 4794
मूल 4793
कोविड-19 4779
हस 4778
बनाया 4776
खेल 4775
सह@@ 4765
10 4755
दल 4752
पैदा 4752
9@@ 4745
रंप 4745
ंक 4742
विक 4741
पहचान 4740
1@@ 4726
मीद 4726
g@@ 4721
जानते 4719
लगाया 4718
नुकसान 4715
छा@@ 4710
पर@@ 4703
9 4701
अली 4701
रेलिया 4683
तेज 4674
यदि 4673
तत 4672
कू@@ 4669
इंग 4666
बंगाल 4662
मामलों 4651
रित 4651
बरामद 4648
एम 4636
लने 4635
रहते 4631
बता 4627
तु@@ 4625
पह@@ 4621
पहला 4621
हम@@ 4609
लिक 4599
फैसले 4595
समझ@@ 4594
धि@@ 4591
बना@@ 4582
लू@@ 4582
कहीं 4577
महिलाओं 4562
जस 4558
माध 4558
शे@@ 4556
उच 4549
युवक 4547
षिण 4543
न-@@ 4541
अदालत 4535
फोटो 4514
संयुक 4509
भेजा 4499
सों 4497
रण@@ 4493
षी 4492
सहित 4482
विचार 4478
जै@@ 4470
तर@@ 4466
बांग 4466
टिंग 4455
गुजरात 4449
रशासन 4449
कंपनी 4440
मेदारी 4438
लाभ 4436
घोषणा 4426
यता 4423
खि@@ 4418
खो@@ 4413
फै@@ 4411
,@@ 4401
बनी 4393
षक 4386
रै@@ 4375
कह 4363
बेहतर 4362
लौ@@ 4352
आम 4348
ंगे 4340
b@@ 4335
कोरोना 4324
चन 4321
तेजी 4320
ख़@@ 4320
बिहार 4318
बद@@ 4314
पंजाब 4311
रिय 4309
मिलते 4306
मुश 4305
अभि@@ 4297
षों 4295
19@@ 4292
नया 4287
बा 4286
बनाए 4280
सब@@ 4272
लै@@ 4271
करो 4270
विपक 4268
पहुंचे 4264
पूछताछ 4264
% 4263
सीबीआई 4263
बने 4256
रुपये 4256
हल 4253
मियों 4251
ंत 4250
मौ@@ 4245
हालात 4243
रिक 4242
पाई 4237
नु@@ 4236
चला 4228
लन 4227
चिकित 4218
ेंगे 4216
नल 4206
घा@@ 4202
साक 4202
पुष 4196
ऐ 4195
वापस 4194
वही 4192
वरिष 4187
विकेट 4183
संगठन 4180
खुशी 4178
h@@ 4176
मित 4176
रास 4175
करीब 4174
टे 4173
बधाई 4168
मू@@ 4168
पेट 4166
कता 4161
ऊ@@ 4160
पू@@ 4157
सामान 4155
चीज 4153
सल 4153
करा@@ 4152
िक 4143
गृह 4136
गे@@ 4131
दस 4127
अधि@@ 4126
हमला 4124
विराट 4122
किंग 4112
नन 4111
लादेश 4111
अगले 4104
अमेरिकी 4102
कन 4101
डा 4100
देख 4099
शब 4095
सके 4093
टिस 4089
तम 4088
अफ 4082
वायरस 4081
आपकी 4078
ंगा 4077
लगा@@ 4076
लो 4076
शांति 4071
वीर 4069
उनमें 4067
हु@@ 4067
ाने 4058
फ़@@ 4054
षा@@ 4050
देखने 4049
20 4039
ारा 4036
खड 4018
खास 4018
तोड 4016
कत 4014
एल 4013
धार 4005
वन 4004
गये 4003
गांव 4002
खिलाड 3996
रार 3989
उनको 3986
जोड 3986
उपयोग 3984
कहते 3984
ख़ुदा 3980
सका 3978
सप 3977
e 3975
पुरस 3975
नेताओं 3946
खा 3943
णय 3938
n@@ 3934
मोहम 3933
चाई 3924
कह@@ 3923
घोषित 3910
– 3907
हा 3906
किल 3905
बू@@ 3892
टों 3882
इनकार 3878
तुरंत 3866
रहेगा 3866
देख@@ 3864
अव@@ 3851
रहती 3837
रियंका 3837
याँ 3833
समारोह 3830
णा 3817
तु 3809
201@@ 3806
देखते 3803
समझ 3801
ेगा 3789
लगभग 3781
मह@@ 3779
तीनों 3770
दिखा@@ 3764
मेंट 3758
मिलेगा 3753
सरकारी 3751
‌ 3749
कृष 3736
चंद 3735
निका@@ 3734
विवाद 3734
सै@@ 3733
ंच 3724
एफ@@ 3723
राजनीतिक 3723
रचार 3721
तानी 3720
देर 3719
जवान 3714
टार 3703
बदलाव 3703
राजनीति 3703
रोक 3703
l@@ 3701
करे 3691
ययन 3688
ही@@ 3682
ंच@@ 3675
खूब 3669
बिना 3669
गों 3656
दिशा 3644
शा 3641
दिक 3638
अभियान 3637
नें 3633
मात 3632
रेन 3616
a 3613
मार@@ 3612
आयोग 3610
कृति 3609
रोहित 3607
मस 3606
काल 3603
निश 3601
टक 3600
शो@@ 3600
मजबूत 3596
वीरें 3595
थि@@ 3592
रेल 3592
... 3589
माना 3589
नाटक 3580
मारे 3580
रिस 3579
लागू 3569
युक 3556
आयोजित 3549
लाने 3539
उपस 3538
बोर 3533
वान 3525
पहुँ@@ 3522
संबंधित 3517
तें 3515
पष 3515
सचिव 3506
मंदिर 3505
रिलीज 3503
शायद 3497
महीने 3494
यहाँ 3494
रभावित 3492
समिति 3492
बार@@ 3486
मुलाकात 3485
खुश 3483
काबू 3482
तेल 3482
नियंत 3481
शुरुआत 3480
जमकर 3476
जाएंगे 3476
निजी 3475
सुधार 3475
सफलता 3474
लु@@ 3472
गलत 3467
उसमें 3466
लर 3465
अहम 3458
माल 3456
ज़ 3456
सहायता 3450
नौ@@ 3442
टरों 3441
ऐ@@ 3430
कैमरा 3421
मिलकर 3421
इनके 3411
रहेंगे 3411
रसूल 3406
इतना 3404
लॉ@@ 3402
षता 3399
तारी 3395
सफल 3393
मू-कश 3389
टाग 3388
माता 3388
असर 3385
मतलब 3383
थियों 3375
लाइ@@ 3374
मं@@ 3368
खत 3363
बातें 3363
यकर 3357
मसीही 3356
विषय 3355
चै@@ 3349
पॉ@@ 3349
भाषा 3348
मुस 3342
सौ@@ 3342
जरूरी 3340
गाँव 3335
तय 3330
आपका 3324
मिले 3323
पल 3322
टिक 3321
दिवस 3314
फी 3312
मीदवार 3312
बन@@ 3309
मेडिकल 3309
लकर 3308
करनी 3306
रेलवे 3301
िल 3300
आधिकारिक 3290
सख 3288
मंजूरी 3282
मू 3282
रानी 3281
t 3279
जवा@@ 3276
कहां 3271
ारों 3262
संभव 3254
सवार 3252
लाल 3250
r@@ 3244
युद 3242
नीति 3235
इतिहास 3234
निक 3233
ठी 3232
सारे 3229
सीरीज 3228
सीमा 3225
बदल 3222
अफ@@ 3219
उड 3219
कारणों 3219
ची@@ 3219
शरीर 3219
लाया 3218
इन@@ 3212
इंसान 3209
ौ@@ 3209
चल@@ 3208
डे 3208
रहता 3205
कक 3195
वीकार 3191
यादव 3190
किताब 3176
12 3174
एंड 3174
मिलेगी 3174
दावा 3172
बावजूद 3169
मच 3169
नेवाले 3168
रतिशत 3164
रवा@@ 3164
नज 3158
महसूस 3154
आसान 3153
यु 3153
लय 3153
किन 3152
छत 3150
कमी 3148
ताल 3147
समाज 3146
समेत 3146
बाकी 3144
रीका 3144
वत 3143
किरदार 3141
कृषि 3133
उठा@@ 3126
अत 3120
दूसरा 3120
निभा@@ 3115
15 3113
ः 3108
धार@@ 3102
वों 3100
बता@@ 3099
सात 3099
अंतिम 3094
बॉ@@ 3094
शी@@ 3094
सारी 3089
2020 3087
अज 3085
सीट 3084
भरोसा 3083
राहत 3083
बे 3082
रौद 3081
ल-@@ 3078
झ 3077
यस 3076
एं@@ 3071
ताव 3071
गण@@ 3070
लम 3065
ारे 3065
तनाव 3057
संभावना 3053
फायदा 3047
बढ़@@ 3046
खारिज 3043
आतंकी 3041
नही 3040
देश@@ 3036
बातों 3033
कम@@ 3032
आती 3030
तरीके 3030
सीसीटीवी 3025
ि 3019
याचिका 3017
कृत 3015
किसान 3011
थोड 3010
हरियाणा 3010
थानों 3009
एच@@ 3008
r 2999
तीय 2996
मेलन 2996
मोबाइल 2996
बहु@@ 2994
िंदगी 2991
ंध@@ 2989
छु@@ 2989
शु@@ 2989
लता 2988
गाड 2982
ऊर 2978
जिसका 2977
आयोजन 2973
डल 2972
सलाह 2969
लाई 2968
कॉन 2965
समूह 2964
गे 2962
मत@@ 2959
णी 2957
तमान 2957
तो@@ 2954
चोट 2952
मेगापिक 2952
समा@@ 2948
वविद 2946
वृद 2943
अधिकार 2941
&#93; 2938
ऊपर 2933
निक@@ 2922
&#91; 2917
जरिए 2917
w@@ 2913
ये@@ 2913
सुनिश 2910
शानदार 2905
रखते 2904
शाहरुख 2897
निधन 2887
अभिनेता 2882
गढ 2881
संसद 2880
ौर 2875
भी@@ 2873
रिया@@ 2873
एल@@ 2869
चयन 2864
अनेक 2863
याय 2863
नंबर 2861
लगाने 2855
आता 2854
जानता 2852
इमरान 2850
विधायक 2849
में@@ 2845
पाए 2842
d 2841
परेशानी 2837
गार 2836
ँ 2835
रूरत 2835
सांसद 2834
संजय 2829
थाने 2824
वॉ@@ 2824
धी@@ 2818
जू@@ 2817
शख 2817
जुट 2813
निस 2806
तव 2803
नागरिक 2803
पाने 2802
जुटी 2801
सिस 2794
नू@@ 2792
लगने 2783
गठबंधन 2782
जय@@ 2781
यकता 2781
घटनास 2779
योगिकी 2779
थना 2775
i 2773
भे@@ 2773
षय 2772
एगा 2770
वहाँ 2765
रखें 2759
सिटी 2759
ारि@@ 2759
दिखाई 2757
आं@@ 2756
फू@@ 2755
सेल 2755
f@@ 2752
वीं 2749
शीर 2748
यास 2746
संक 2743
लिम 2742
ईरान 2741
लेंगे 2741
करेगी 2739
चिंता 2739
रेट 2733
संदेश 2732
वतंत 2730
गौ@@ 2727
घु@@ 2717
देंगे 2717
वल 2716
50 2715
राय 2708
लिस 2707
मौसम 2706
वाहन 2706
यायालय 2702
उदाहरण 2699
जिसकी 2697
अभिनेत 2696
साइ@@ 2695
यापार 2694
खुलासा 2693
धा 2691
साबित 2691
हिंदी 2689
छानबीन 2688
दूसरों 2680
रख 2677
लेख 2675
जाया 2674
सूची 2667
in@@ 2666
हिंसा 2665
धु@@ 2664
शिवसेना 2664
बहन 2660
दीन 2658
एफ 2657
संघ 2656
टल 2654
खर 2649
लना 2648
सुनवाई 2645
छह 2644
संबोधित 2644
अपील 2642
दीपिका 2638
विटर 2637
रूस 2631
जोर 2630
संपर 2622
अतिरिक 2621
30 2619
कही 2618
जीबी 2618
कराने 2617
विमान 2616
सामाजिक 2615
टू@@ 2613
पुलिसकर 2613
आधारित 2612
उपचार 2612
बह@@ 2612
रोत 2612
ंगा@@ 2611
ईमान 2609
संग 2609
आवेदन 2605
मुक 2604
रंग 2604
अंतरराष 2599
कारी 2597
आएंगे 2594
खाने 2593
कारों 2592
होकर 2592
रहें 2588
कॉलेज 2583
बनने 2579
सारा 2575
धोनी 2574
इसको 2572
नेतृत 2572
मौका 2572
साथ-साथ 2572
तिक 2569
सोच 2569
पालन 2568
वो@@ 2566
अग 2563
बैठ@@ 2563
सकी 2562
यो 2560
चाहे 2559
an@@ 2558
हॉ@@ 2558
ाय@@ 2551
ावा 2551
दौरे 2550
पित 2549
संभा@@ 2547
परिणाम 2546
p 2545
छोटे 2545
बाजार 2545
कराई 2540
षमता 2539
दम 2538
रेम 2535
गैस 2533
धी 2533
मिल@@ 2532
थाना 2528
दौर 2524
परवरदिगार 2524
ठा 2521
निवेश 2521
योगी 2520
बिजली 2516
णा@@ 2515
पं@@ 2515
रूरी 2515
जैसा 2514
परिवर 2512
साहित 2511
16 2507
खराब 2505
शूटिंग 2505
सजा 2504
नाक 2503
मज@@ 2501
केरल 2498
नव@@ 2496
20@@ 2495
आदमी 2495
ंस@@ 2494
भाव@@ 2491
आखिर 2488
निया 2487
नीचे 2486
रोज 2486
सुबह 2486
दोषी 2485
लित 2485
फो@@ 2484
एंगे 2480
पड़@@ 2478
वेस 2477
राव 2473
ड़ी 2473
नागरिकता 2472
भि@@ 2468
बाल 2467
करा 2466
ारी 2466
रयोग 2463
हन 2460
छो@@ 2457
मज 2457
गोली 2453
बुरी 2452
लं@@ 2451
तू 2450
सुन@@ 2450
डॉ. 2445
टने 2444
हरा 2442
तीसगढ 2439
वैश 2439
सीएम 2439
कस 2438
वाई 2438
ॉ@@ 2437
11 2436
पवित 2436
तार@@ 2434
राम@@ 2434
हारी 2434
चो@@ 2433
ैं@@ 2431
00 2428
होनी 2427
धिक 2425
देगा 2424
परेशान 2422
वाल 2421
छि@@ 2420
सोच@@ 2419
मेहनत 2418
रवक 2417
शकों 2417
k@@ 2415
पाक 2414
दर@@ 2412
लेबाज 2411
रहना 2410
अंदर 2409
धरती 2409
लंबे 2408
नाथ 2405
आध 2403
,000 2402
चुनौती 2401
मचारियों 2397
रिकॉर 2396
गी@@ 2395
यादातर 2395
जों 2394
वारदात 2394
ऑनलाइन 2393
कहानी 2393
आदित 2388
रोजगार 2385
थव 2384
आते 2381
रखना 2381
षीय 2380
हरा@@ 2378
घरों 2377
समाधान 2377
अमिताभ 2376
तू@@ 2374
गईं 2373
पोर 2373
बत 2373
िता 2370
इच 2369
टिव 2369
तैनात 2368
डो@@ 2367
शुक 2366
आरोपों 2365
धो@@ 2365
मुकदमा 2364
वजनिक 2363
गन 2360
नौकरी 2359
मीदवारों 2358
मिलती 2357
रिमंडल 2355
ंद@@ 2353
पौलुस 2353
यानी 2352
चले 2349
परिषद 2349
अलग-अलग 2348
बुद 2347
चू@@ 2345
टेक 2345
मास 2344
जॉ@@ 2343
सांस 2343
वागत 2337
अंग 2336
0 2335
फॉर 2335
भु@@ 2333
र-@@ 2332
किये 2330
डिंग 2330
सुविधा 2330
जनरल 2329
मृतक 2327
चेन 2326
सभा 2324
निकल 2322
यवाद 2322
रब 2322
इंतजार 2316
भाव 2316
संशोधन 2313
v@@ 2312
रेड 2312
रीलंका 2311
रोड 2309
नज@@ 2308
नक 2306
आप@@ 2305
फल 2305
दुल 2303
डोनाल 2298
मुकाबला 2298
वैज 2298
कहता 2296
निष 2295
मिश 2295
पिक 2293
100 2286
िम 2286
मल 2283
खों 2282
लगाए 2281
हित 2280
माहौल 2278
ग़@@ 2278
चाहती 2277
यूजीलैंड 2277
तीफा 2274
लेते 2273
थापित 2272
हाई 2272
लिखित 2271
13 2268
अनुमति 2265
छ 2264
ाया 2264
दान 2259
वाद 2259
अम@@ 2258
ई-@@ 2258
वचन 2258
सियों 2257
राजनाथ 2256
समाचार 2251
लोकतंत 2249
योगदान 2248
निदेशक 2247
बेशक 2245
200@@ 2242
कोलकाता 2242
नाएं 2242
जैसी 2241
महामारी 2238
बीमारी 2234
पाल 2228
महिलाएं 2227
मिसाल 2220
लते 2220
वार@@ 2217
ॉर 2217
हाईकोर 2216
हिन 2216
m 2215
सूत 2212
कीजिए 2210
लाइन 2210
हे 2208
जिसने 2206
पेज 2206
युवा 2206
येक 2204
टॉस 2201
सिक 2201
सोनिया 2199
दुष 2197
िर 2196
ंदा 2194
शहीद 2194
खी 2193
आपने 2192
दीप 2192
हैं@@ 2191
धित 2190
बचाव 2190
उसको 2189
नेवाला 2188
अनुभव 2187
इनकी 2187
याण 2186
लू 2183
आइए 2182
लान 2182
14 2180
टॉ@@ 2179
पहुंचा 2179
तियां 2177
चोपड 2174
सौंप 2173
लेना 2172
हवाई 2172
घे@@ 2170
शासन 2168
भीड 2167
नेशनल 2166
माने 2163
फ़ 2162
जित 2160
ंडर 2158
टिप 2158
एड@@ 2156
अनुष 2155
इलाकों 2155
शो 2155
हड 2150
गं@@ 2149
मिलता 2149
ंब@@ 2147
परा@@ 2147
कैद 2144
दत 2144
साझा 2141
घाटन 2140
गै@@ 2135
रधान 2135
लग@@ 2135
देखें 2134
टो 2132
रप 2132
चक 2128
लेबाजी 2128
रज 2127
टाइ@@ 2121
निंग 2121
ढा@@ 2120
भार 2118
लत 2117
नाइ@@ 2114
चारों 2113
रतिक 2112
आश 2110
सीटों 2109
दुख 2108
भूमि 2108
मण 2108
यिक 2107
गठन 2105
मिशन 2104
लिंग 2104
रूर 2103
चली 2102
24 2101
वाहनों 2099
दाम 2096
लियों 2095
अरब 2094
वें 2094
&#124; 2092
ar@@ 2088
याओं 2084
षि@@ 2082
करवाया 2076
यापक 2076
उठ@@ 2075
जीतकर 2075
दियों 2075
शुभकामनाएं 2074
सिं@@ 2070
ेगी 2070
नम 2069
नवा@@ 2068
एक@@ 2067
मेदार 2066
मृतकों 2064
अकाउंट 2060
आस 2060
णों 2060
रणवीर 2060
शांत 2060
दृष 2058
पैसे 2057
डिग 2056
ताक 2052
आकर 2050
नियर 2049
बान 2046
नीय 2044
छे@@ 2043
रहेगी 2042
एह@@ 2039
रवि@@ 2038
सक@@ 2032
हिंदू 2032
दारी 2028
समीक 2024
थो@@ 2023
फी@@ 2023
सेक 2023
लेक 2022
संकट 2022
चीफ 2021
रबंधन 2020
समझौता 2020
co@@ 2018
आशा 2017
इरा@@ 2017
मौजूदा 2015
हाँ 2013
कं@@ 2012
तैयारी 2011
बरा@@ 2009
बेटा 2008
शन@@ 2008
ड़ा 2008
जहाँ 2007
रभाव 2007
विकसित 2007
मतदान 2005
इंटरनेट 2002
असम 1999
िया 1998
ंडा 1995
ऋ@@ 1995
जिनमें 1995
रतिनि@@ 1993
रु 1993
डीजल 1992
बड़ी 1992
जुन 1991
शील 1991
पारी 1988
टै@@ 1986
शनकारियों 1985
तं@@ 1982
पार@@ 1981
जताई 1980
डिस 1978
शोक 1977
कोच 1976
रमण 1975
मॉ@@ 1974
c 1973
ञात 1973
तीसरे 1972
वश 1972
हैदराबाद 1972
चिं@@ 1970
कहती 1968
बाइक 1967
मानव 1967
राजा 1967
पादन 1965
मैचों 1960
रमा@@ 1960
लास 1959
देखकर 1958
तरी 1957
बोल 1957
रखी 1951
हटा@@ 1951
कीमत 1949
पात 1948
यूज 1948
कहने 1942
झू@@ 1942
यपाल 1942
संविधान 1941
आदि 1938
दाखिल 1938
जिंदगी 1936
er@@ 1934
सो 1932
जाम 1930
आतंकवाद 1928
रशिक 1928
बनाई 1927
भर@@ 1927
दौरा 1926
बेस 1926
लाए 1925
मसीह 1924
इतनी 1923
डाल 1921
फाइनल 1919
झा@@ 1918
रल 1918
देकर 1917
रेशन 1914
बुरा 1911
महान 1911
मरने 1910
बहनों 1909
वनडे 1909
साथी 1907
साम@@ 1906
मेल 1905
बं@@ 1904
अंत 1902
हाइ@@ 1902
y 1901
इलेक 1899
गो 1899
19 1898
ताह 1897
पुत 1897
हां 1896
जाकर 1895
भट 1893
आसपास 1890
खाना 1890
फैंस 1890
रामीण 1890
वच 1885
हालाँकि 1882
सैन 1879
लेगा 1878
लिख@@ 1877
ारा@@ 1877
षर 1872
21 1871
राह@@ 1871
हक 1870
नागरिकों 1869
गति 1868
विजय 1868
नियों 1867
रश 1867
फोर 1866
रांस 1863
25 1862
इब 1861
सिन 1860
तित 1858
रणबीर 1857
संबंधों 1857
एसपी 1856
मनमोहन 1855
लॉन 1855
घट@@ 1854
कितना 1853
हारा 1850
अनुसंधान 1849
रगति 1849
सुशांत 1849
2019 1848
ंदर 1848
मांग@@ 1847
मानित 1846
आद@@ 1843
रोकने 1842
डर@@ 1841
रुपए 1841
विभा@@ 1841
18 1838
सौं@@ 1836
नियम 1834
नो 1833
बचा@@ 1833
परियोजना 1832
कट 1831
शास 1831
यल 1829
उठा 1828
गोल 1828
चना 1828
दारों 1828
कंप 1824
डायरेक 1824
पृथ 1822
रकाश 1819
रकाशित 1819
ीय 1819
पैसा 1818
बड़ा 1816
ॆ@@ 1816
खतरा 1814
वर@@ 1814
टेशन 1813
नै@@ 1813
जवानों 1812
केजरीवाल 1811
चढ 1811
22 1810
उठाया 1809
चरण 1809
रहे@@ 1808
ममता 1806
उचित 1805
पटेल 1804
नियुक 1802
मन@@ 1800
रेरित 1799
रीक 1797
10@@ 1796
लंबी 1795
रेंस 1793
बंदी 1791
सुना@@ 1791
आतंकवादी 1790
l 1789
टैक 1788
इंडियन 1787
कैमरे 1787
जमा 1787
टूर 1787
मना@@ 1787
फेसबुक 1786
लॉकडाउन 1786
समुद 1786
निशाना 1785
बेहतरीन 1785
सला@@ 1785
o 1781
बताई 1781
रेष 1780
ड़े 1779
गिर@@ 1778
जाति 1777
मनी 1777
पादुकोण 1775
पीठ 1775
टीमों 1773
अफगानिस 1771
निशा@@ 1771
विवा@@ 1771
कानूनी 1769
मद@@ 1769
शाम 1769
आलिया 1767
17 1766
देती 1766
दलों 1765
पना 1765
खाद 1764
रिटेन 1763
चुनावों 1762
रखता 1762
एयर 1761
बलों 1761
शैतान 1761
जताया 1760
याह 1760
अड 1759
दिखाया 1758
पहुंचकर 1757
रहण 1757
रां@@ 1755
विकल 1751
आईपीएल 1749
टीवी 1747
तमिलनाडु 1747
िले 1747
खुदा 1746
तुलना 1746
यूट 1746
राह 1745
एन 1744
दोबारा 1744
मंडल 1744
मानना 1744
टोरेज 1743
बनर 1743
बजट 1740
रष 1740
भाषण 1738
यंत 1738
ऐलान 1737
ठा@@ 1735
आपूर 1734
करीना 1731
बानी 1731
अंजाम 1730
विधेयक 1729
आन 1728
जापान 1728
आंध 1727
ञापन 1725
तमाम 1725
नेवाली 1724
रोग 1723
भो@@ 1722
हफ 1721
माँ@@ 1720
रसाद 1720
आदर 1718
संबंधी 1717
विन 1716
धू@@ 1715
मैदान 1715
भारत-@@ 1714
लाना 1713
एशिया 1712
जमानत 1712
मूसा 1712
शिया 1711
पक@@ 1710
यसभा 1709
हिम 1709
ान 1709
रणाली 1708
एप 1706
रुप 1705
समान 1705
भगवान 1704
सूचित 1704
दूरी 1703
परिवहन 1702
चोटें 1699
टीमें 1699
हेल 1699
कैसा 1698
चलता 1698
िए 1698
आनंद 1697
डेट 1697
उठाए 1696
वं@@ 1696
राशि 1695
वोट 1695
रवेश 1694
मेट 1692
रीन 1692
हादसा 1691
केशन 1688
रान 1688
याप 1687
मुकाबले 1686
जनक 1680
वैसे 1680
लड़@@ 1678
उर 1676
राचीन 1675
हरी 1675
यूनिवर 1672
भाइयों 1670
करवा@@ 1669
जुर 1668
कोविड 1667
वाह 1667
कैबिनेट 1666
आमिर 1665
निंदा 1664
मानी 1664
दौ@@ 1663
ईमान@@ 1661
यनाथ 1661
आईसी@@ 1659
मोर 1657
यकीन 1657
शुल 1655
जीता 1654
नेवालों 1654
तभी 1651
बदला 1651
मसीहियों 1651
एजेंसी 1648
रेप 1648
जिन@@ 1647
षियों 1646
कृ@@ 1645
पुस 1644
मर@@ 1644
गाने 1642
ने-@@ 1641
पहुंचाया 1641
सां@@ 1641
पूछा 1639
राजपूत 1639
कां@@ 1636
रिकेटर 1636
ic@@ 1633
मैन 1632
अपराध 1631
गेंदबाजी 1631
पणी 1631
en@@ 1630
देखिए 1630
दायर 1627
रव 1627
निपटने 1626
संरक 1626
पुरुष 1625
आइ@@ 1624
नता 1622
फायर 1622
अनिल 1621
आखिरी 1620
रयासों 1619
अहमद 1617
इल 1617
ञा 1617
बच@@ 1617
देव@@ 1616
बोला 1615
जल@@ 1613
दित 1611
गेंदबाज 1610
चेतावनी 1609
ताकत 1609
षम 1609
कैफ 1606
गह@@ 1606
रहा@@ 1605
धर@@ 1604
पूछ@@ 1604
सकों 1604
सेहत 1604
आंकड 1602
टियों 1602
वाय@@ 1602
अर@@ 1601
टेट 1601
बंध@@ 1601
बू 1600
जीतने 1599
फा 1598
लंदन 1598
हथियार 1598
शों 1597
कोरिया 1596
टर@@ 1596
नदी 1596
याव@@ 1592
भोजन 1591
रामीणों 1591
सबको 1590
ऐप 1589
कितनी 1589
पूजा 1589
धता 1587
रेज 1587
हीं 1587
लिमिटेड 1585
खेला 1583
डाला 1582
बिलकुल 1582
गिरावट 1580
रीत 1580
रैं@@ 1580
तापमान 1579
आय@@ 1578
पहल 1578
नस 1577
यहीं 1577
12@@ 1576
अवधि 1574
ञा@@ 1574
हवाले 1573
मनुष 1572
सुविधा@@ 1571
ोतरी 1570
कृतिक 1568
छोटी 1568
कमा@@ 1567
निगरानी 1567
मचारी 1567
बॉक 1566
40 1564
केट 1562
मजबू@@ 1562
लंघन 1562
केश 1561
बाज 1561
सान 1560
सुल@@ 1560
ईश 1559
उपा@@ 1559
डन 1559
ठे 1557
त-@@ 1557
कोविंद 1556
दिख@@ 1555
सैफ 1555
मिला@@ 1554
आठ 1553
तंत 1553
शिखर 1553
आतंकियों 1551
वेल 1551
क-@@ 1550
कान 1550
सिखा@@ 1550
जत 1549
जरूर 1548
निय@@ 1544
टाचार 1542
रियर 1542
सचिन 1542
समाप 1542
सहमति 1542
शीघ 1540
ऑपरेशन 1537
दिग 1537
रंट 1537
शे 1537
लिन 1536
शैक 1535
समुदाय 1535
हेतु 1534
संघर 1533
डब 1532
एक-दूसरे 1531
नत 1530
हद 1530
re@@ 1528
आगामी 1528
जानी 1528
लाखों 1528
गरीब 1527
माफी 1527
ti@@ 1526
एफआईआर 1526
भावना 1526
राग 1525
चाह@@ 1524
दरअसल 1524
वेबसाइट 1523
गुस 1522
भाग@@ 1522
रम@@ 1522
टइंडीज 1521
मरीजों 1521
अशोक 1520
दिलचस 1520
सराहना 1520
अग@@ 1519
रंजन 1519
रैली 1519
झु@@ 1518
बरी 1516
करार 1514
​ 1513
वज@@ 1512
शवों 1512
मुफ 1510
कैंसर 1509
शिव@@ 1509
माँ 1508
शपथ 1508
मला 1507
योज@@ 1507
नयी 1505
जिलों 1504
वरों 1501
जग@@ 1499
मुठभेड 1499
रिए 1499
गुप 1498
जनों 1498
दू 1497
वोत 1496
चय 1495
चीनी 1495
मीन 1495
लगाई 1495
ऐतिहासिक 1494
याल 1494
नेपाल 1492
तै@@ 1491
संदेह 1490
नॉ@@ 1487
गौर 1486
दीक 1486
रौ@@ 1485
अपना@@ 1484
तिगत 1482
धान 1482
अभ 1481
विदेशी 1481
सीटें 1481
एजे@@ 1480
दय 1480
पे 1480
शतक 1480
आईटी 1479
राजधानी 1479
रका@@ 1478
रतिबद 1478
मानते 1477
तना 1476
सैनिक 1476
n 1474
आशंका 1473
भवन 1473
तौ@@ 1471
महि@@ 1471
मेश 1470
रैक 1469
वयं 1469
जमीन 1468
महेंद 1468
सबूत 1468
दास 1466
आएगा 1465
मालूम 1464
मिर 1462
याज 1462
चोरी 1461
भूकंप 1460
बजाय 1459
रैम 1459
लाम 1459
शाली 1459
इला@@ 1458
कीमतों 1458
बहस 1457
टेली@@ 1455
हू@@ 1455
यावरण 1454
दगी 1452
फायरिंग 1452
रू 1452
युवकों 1451
आक 1449
सुन 1449
भरपूर 1448
कला@@ 1446
फिक 1446
नामेंट 1444
माइक 1444
शुरूआत 1443
अरविंद 1442
मृ@@ 1442
षकों 1442
आवाज 1441
पट 1441
परिवारों 1440
बद 1440
y@@ 1438
ॉ 1438
मारपीट 1437
जिनके 1436
थापना 1436
चलने 1435
जिक 1435
धमकी 1435
सला 1435
सामग 1433
ऑफिस 1432
मूर 1432
मां@@ 1431
रफ 1431
वीप 1431
बारी 1430
गुज 1429
राय@@ 1429
आंदोलन 1428
इनका 1427
कायम 1427
कमेटी 1426
देव 1426
पाते 1426
फुटेज 1426
राइवर 1425
बीसीसीआई 1424
आसमान 1423
रेक 1423
सहायक 1423
अमरीका 1421
मनो@@ 1421
पाय@@ 1419
मिस 1419
कनेक 1418
कियों 1418
नियमित 1418
शाहिद 1418
कितने 1417
रखे 1415
तरीका 1413
दबाव 1413
बचा 1413
सृ@@ 1413
वादा 1412
किलोमीटर 1410
ंगल 1409
इए 1409
उठाने 1409
टेड 1409
ोर 1408
नवी@@ 1406
संदर 1406
होंगी 1406
_ 1405
धियों 1405
१@@ 1405
ra@@ 1404
ञानिक 1403
दाय@@ 1403
सुनील 1402
गज 1401
दोषियों 1398
मचा 1397
आवा@@ 1396
रार@@ 1396
विकेटकीपर 1395
बने@@ 1394
te@@ 1393
उधर 1391
कलीसिया 1391
डाक 1391
पांच@@ 1389
हताहत 1389
तुमसे 1387
सकें 1387
डेविड 1386
पाठ 1385
वासी 1385
फॉ@@ 1383
रसन 1383
हैरान 1383
झारखंड 1382
शोध 1382
ीक 1382
रिय@@ 1381
बाढ 1380
मिट 1380
पदक 1379
मना 1379
लौट 1379
वाइ@@ 1379
पण 1378
घरेलू 1376
संतु@@ 1375
रहीं 1374
वेक 1374
आएंगी 1373
शुरु 1373
टिल 1372
j@@ 1369
युवती 1368
ंसी 1367
फु@@ 1366
गोलीबारी 1365
ऊ 1364
कू 1364
निकाल 1364
निभा 1364
वाकई 1363
उपाध 1362
कंपनियों 1362
नौसेना 1361
बनाना 1360
सवालों 1360
झगड 1358
तमिल 1358
ैर 1358
मैक 1357
अचानक 1356
आसानी 1356
विचार@@ 1356
कामों 1355
खूबसूरत 1354
धवन 1354
डिजिटल 1353
भार@@ 1352
gb 1351
देशभर 1349
लेन 1347
बराबर 1346
सरकारों 1346
ढू@@ 1344
नियमों 1343
काम@@ 1342
लेट 1342
बूत 1341
सास 1341
पिटल 1340
स-@@ 1340
युवाओं 1339
रं@@ 1339
सीधे 1338
हाज 1338
अधिनियम 1336
एनडी@@ 1336
धांजलि 1336
ाहिर 1336
तः 1335
रॉय 1335
जख 1334
शमी 1334
साथियों 1333
घो@@ 1332
पों 1332
राजीव 1332
कामयाब 1331
जाँच 1331
णे 1331
वाड 1330
रमों 1329
रच@@ 1328
आईसीसी 1325
यवाही 1325
भूषण 1324
शस 1324
दुका@@ 1323
वरी 1322
चेहरे 1321
हजारों 1321
खून 1320
संगीत 1319
खोज 1318
संसाधन 1318
आउट 1317
धारा 1317
रंग@@ 1316
धों 1315
सुर 1315
सूर 1315
शासित 1314
षाओं 1314
इयों 1313
इतने 1312
जाय@@ 1312
आना 1311
जगहों 1311
मालिक 1309
कमि@@ 1307
गें 1307
पुनर 1307
मराह 1307
षे@@ 1307
दन 1306
बाजी 1306
उप 1305
एँगे 1302
सैनिकों 1301
भुगतान 1300
मेह@@ 1300
अजय 1299
उपराष 1298
जाए@@ 1298
बहा@@ 1297
खाली 1295
खिला@@ 1295
सेवाओं 1291
तस@@ 1290
यवहार 1290
लीड 1290
धक 1289
रामनाथ 1288
शै@@ 1288
गहरा 1287
सकारात 1286
सदी 1286
सन@@ 1286
मनाया 1285
नवाज 1284
रिंग 1284
सऊदी 1284
तनी 1282
किम 1281
एनसीपी 1280
गिर 1280
तृत 1280
विशेषज 1280
यटन 1279
परिजन 1278
शहरों 1278
क़ 1278
गलती 1276
दमकल 1276
लोक@@ 1276
तने 1275
यूनि@@ 1275
गड 1273
गां@@ 1273
पेड 1273
सफर 1273
बिन 1272
1,@@ 1271
हाथों 1271
हॉस 1271
तारीफ 1270
धमा@@ 1270
गंभीरता 1269
मई 1269
सागर 1269
बंध 1268
घटनाओं 1267
माता-पिता 1267
समृद 1267
बेन 1266
देखभाल 1265
पुन@@ 1265
वि 1264
यां@@ 1263
कंट 1262
फर@@ 1262
षाबलों 1262
अंतरिक 1261
मुझसे 1261
खंड@@ 1260
नियां 1260
भजन 1260
सज 1259
डू@@ 1258
निशान 1258
परियोजनाओं 1258
पहुंचने 1258
यूब 1258
शान 1258
गोवा 1257
आँ@@ 1256
दिखा 1256
समझौते 1256
झूठ 1255
अनुरोध 1254
हिंदु@@ 1254
इंटरव 1253
कपिल 1251
कौ@@ 1251
जाएं 1250
झड 1250
मल@@ 1250
फैल 1249
रियल 1249
लिय@@ 1249
अह@@ 1247
आयुष 1247
विटामिन 1247
सनी 1247
उपासना 1246
शल 1246
कौशल 1245
करियर 1244
ञ@@ 1244
डाय@@ 1244
पिछ@@ 1244
राउ@@ 1244
बाप 1243
संगठनों 1243
सीन 1243
सेट 1243
परिस 1242
ंज 1240
रैल 1240
करूंगा 1238
फं@@ 1238
चुना 1237
सोचा 1236
तिथि 1234
रोह 1233
देखी 1232
पाकर 1231
मुखर 1231
रथम 1231
ाइल 1231
किताब@@ 1229
कुलदीप 1229
कित 1226
ंसि@@ 1225
आशी@@ 1225
डु@@ 1225
धीरे 1224
बॉल 1224
मारी 1224
वामी 1224
सिविल 1224
तेलु@@ 1223
रतियोगिता 1223
हंगामा 1223
काई 1222
वती 1222
परस 1221
बताते 1221
लती 1221
ास 1221
शराब 1220
वाणिज 1219
गुज@@ 1218
देशक 1218
भाषाओं 1218
इज 1217
निरा@@ 1216
सेवाएं 1216
किशो@@ 1215
भरा 1215
सस 1215
मानसिक 1213
लिखी 1213
संसार 1213
बौ@@ 1212
वन@@ 1212
2018 1211
st@@ 1211
फोट 1211
बिता@@ 1211
भीतर 1211
पहुंच@@ 1210
दिख 1209
सिवा 1209
हुईं 1209
धो 1208
सालों 1208
तारीख 1207
आईं 1206
टकर 1206
बिगड 1206
शुभ 1206
संपत 1206
सुनकर 1206
गियों 1205
फाइ@@ 1205
नाओं 1204
पहुंचा@@ 1204
al@@ 1203
देशन 1202
नक@@ 1202
वज 1201
एगी 1200
पेक 1200
कठिन 1199
तुर 1199
दरवा@@ 1199
नोटिस 1199
मेक 1199
मंड@@ 1198
डॉलर 1197
सुना 1197
टाइम 1196
नोट 1196
ंगर 1195
सबके 1195
रहो 1194
अना@@ 1193
चैं@@ 1193
महीनों 1193
ॅ@@ 1193
वकील 1192
संदिग 1192
जू 1191
पौ@@ 1191
रतिबंध 1191
पें@@ 1190
ैंड 1190
खाते 1189
नये 1188
रिका 1187
धीन 1186
हिमाचल 1186
नायडू 1185
रोक@@ 1185
f 1184
जाओ 1183
सद@@ 1183
षिक 1182
बपतिस 1181
महासचिव 1181
राना 1178
सफ@@ 1178
करू@@ 1177
कूलों 1177
थर 1176
मकसद 1176
वृत 1176
आरोपित 1175
घं@@ 1175
डॉ@@ 1175
कामना 1173
रेलर 1173
शौ@@ 1173
आएगी 1170
चिदंबरम 1170
तरित 1170
निकाला 1170
कारा 1169
बुनियादी 1169
लियम 1169
शित 1167
षणिक 1167
जिद 1166
थायी 1166
आंसू 1165
दुश 1165
संकल 1165
एकता 1164
वायु 1164
धारित 1163
रतीक 1163
रेजी 1163
लस 1163
हिक 1163
पट@@ 1162
गौरतलब 1161
बख 1161
बलात 1161
लॉजी 1161
अयोध 1159
तेलंगाना 1159
लाते 1158
लोक 1157
शू@@ 1157
हराया 1157
अद 1155
एसएम@@ 1155
गतिविधियों 1155
टफोन 1155
नीतीश 1155
मानता 1155
फैन 1154
भेज@@ 1154
कारोबार 1153
जून 1153
मिथ 1153
यर@@ 1153
सेंसर 1153
हार@@ 1153
चपेट 1152
वाक 1152
काओं 1151
गृहमंत 1151
इंतज 1150
नतीजे 1150
माल@@ 1150
कोह@@ 1149
नेस 1149
तकनीकी 1148
धारण 1147
कें 1146
ंडे@@ 1145
हमलावर 1145
गोयल 1144
तुत 1144
दाख 1144
बैठे 1144
इजा@@ 1143
नतीजा 1142
वें@@ 1142
टरी 1141
फुट@@ 1141
० 1141
छुट 1140
शरीफ 1140
in 1139
यप 1138
or@@ 1137
माफ 1137
एयर@@ 1135
दूत 1135
खी@@ 1134
घू@@ 1134
टाई 1134
देखना 1134
काने 1133
रीकी 1132
सपोर 1132
मारने 1131
करि@@ 1130
टीन 1130
डिप 1130
कट@@ 1129
बुल 1129
यौ@@ 1129
वराज 1129
हाउस 1129
दृश 1127
राए@@ 1127
चीजें 1126
भड 1126
गुण 1125
लागत 1125
हुक 1125
कैटरीना 1124
जेटली 1124
-ए-@@ 1123
टिकट 1123
तुमने 1123
अति@@ 1121
टॉप 1121
तुमको 1121
०@@ 1120
एयरपोर 1119
चिन 1119
छापेमारी 1119
आपस 1118
आमंत 1118
इंकार 1118
अथ@@ 1117
तृ@@ 1117
ियां 1117
जानने 1116
टेडियम 1116
विरुद 1116
ंजी 1115
अरुण 1115
रतिष 1115
कालीन 1114
पुलवामा 1113
गुना@@ 1112
तह@@ 1112
मंच 1112
मारा 1112
याई 1112
रिम 1112
भक 1111
बनाकर 1110
एनसी@@ 1109
हटा 1109
झटका 1108
भरी 1108
लब 1108
शियम 1108
एनआरसी 1107
लिखे 1107
ात 1107
भय 1106
शारीरिक 1106
अधिकतर 1105
अधिकांश 1105
बीएस@@ 1104
नार 1103
पस 1103
खद 1102
पेन 1102
शंकर 1102
तेहैं@@ 1101
साइड 1101
वादी 1100
आय 1099
घटना@@ 1099
ंटन 1098
आबादी 1098
रभु 1098
रवाना 1097
आरंभ 1096
दीकी 1095
फोटोज 1095
राजमार 1095
अश 1094
एक-एक 1094
पिंग 1094
दौड 1093
नेटवर 1093
लीग 1093
महात 1092
मिलेंगे 1092
सेंट 1092
हू 1092
ूद 1092
हिसाब 1091
h 1090
अल@@ 1090
यूपी 1089
सीख@@ 1089
खतरनाक 1087
छोटा 1087
यूजर 1087
रभावी 1086
सरों 1086
1.@@ 1085
18@@ 1085
ऑक 1085
खतरे 1083
गहरी 1083
सहमत 1083
कहा@@ 1082
बिक 1082
संवेद@@ 1082
समझने 1082
कपड 1081
गम 1081
दली@@ 1081
नारे 1081
बीते 1081
निरंतर 1079
साव@@ 1079
घटनाएं 1078
निगम 1078
जीएसटी 1077
टु@@ 1076
परमाणु 1075
संकेत 1075
23 1074
जागरू@@ 1074
रृंखला 1074
जबरदस 1073
भागीदारी 1073
परन 1072
पीने 1072
सव 1072
कॉल 1071
सुषमा 1071
ऑफि@@ 1070
थे@@ 1070
बां@@ 1070
शिका@@ 1069
जगत 1068
ञ 1068
कहाँ 1067
लट 1067
करनेवाले 1066
सोने 1066
रकट 1065
31 1063
अकेले 1063
राकृतिक 1063
लुक 1063
संचार 1063
सल@@ 1063
गाह 1062
जिस@@ 1062
ंडे 1061
चम 1061
ठोस 1061
नड 1061
बहुमत 1061
साउथ 1060
सड़@@ 1060
60 1058
पढ़@@ 1058
बदले 1057
मरा@@ 1057
अंदाज 1056
तालि@@ 1056
निप@@ 1056
बीर 1056
मनोहर 1056
बढ़ 1055
कला 1054
समू@@ 1054
पदों 1053
फे 1053
किट 1052
जायेगा 1052
ौम 1052
अगु@@ 1051
थिर 1050
वापसी 1050
ै 1050
और@@ 1049
भावनाओं 1049
शनों 1049
सिंग 1049
हज 1049
अगली 1048
खरी@@ 1048
निम 1048
सलाहकार 1048
ोड 1048
आलोचना 1046
नाश 1046
मदिन 1046
चौधरी 1045
कैं@@ 1044
लाइट 1044
वरूप 1044
अंत@@ 1042
अकसर 1042
जाहिर 1042
विशा@@ 1042
-प 1039
गल 1039
पंचा@@ 1038
फांसी 1038
32 1037
चिमी 1037
कबूल 1036
माइ@@ 1036
यामत 1036
15@@ 1035
वेट 1035
अके@@ 1034
गल@@ 1034
लेखक 1034
उस@@ 1033
खो 1033
बसपा 1033
खे 1032
तावेज 1032
बचाने 1032
बदमाशों 1032
फाइल 1031
अमल 1030
जरु@@ 1030
तबा@@ 1030
तैयारियां 1030
बम 1030
साधा 1030
पने 1029
अतः 1028
चि 1028
चुनावी 1028
पब 1028
लंब@@ 1028
शेख 1028
अवॉर 1027
नात 1027
मरीज 1027
लोकप 1027
वोच 1027
हैया 1027
उपाय 1026
दिवसीय 1026
बदलने 1026
बुलाया 1026
लुओं 1026
ठो@@ 1025
ं- 1024
डालकर 1024
पुरा 1024
रांत 1024
समझते 1024
आपत 1023
ट-@@ 1023
यायाधीश 1023
राया 1023
सेंटर 1023
अज@@ 1022
यूटर 1022
असल 1021
इंतजाम 1021
डाउनलोड 1021
शॉ@@ 1020
घंटे 1019
दिशा@@ 1018
शेष 1018
पड़ा 1017
बीआई 1016
रिज 1016
सेव@@ 1016
नग@@ 1015
पल@@ 1015
बीमार 1015
ईस 1014
कहा- 1014
गठित 1013
ठहराया 1013
धिकारी 1013
पुराने 1013
इकट 1012
करवा 1011
ओडिशा 1010
चलाया 1010
सतर 1010
tion 1009
जंग 1009
डियो 1009
वारी 1009
शियों 1009
ंभ@@ 1008
जाएँ 1008
पाप 1008
फार 1008
नितिन 1007
सुझाव 1007
रेनों 1006
ऊँ@@ 1005
यायिक 1005
दिये 1003
फायदे 1003
यातायात 1003
होत 1003
आयी 1002
खरीद 1001
तरीय 1001
पतालों 1001
बजे 1001
विरोधी 1000
जरिये 999
टूट 999
तारा 999
रणों 998
जाये@@ 997
वफादार 997
इंसानों 996
इसे@@ 996
पिस 996
मस@@ 996
सिने@@ 996
जज 994
टमॉर 994
दार@@ 994
बेल 994
जयंती 993
टिन 993
पीड़@@ 993
बायो@@ 993
भला 993
ठाकुर 992
बेंगलु@@ 992
vi@@ 991
अटल 991
कृपया 991
टोक 991
ंचे 990
आतंकवादियों 990
दृढ 990
लिप 990
सुनने 990
अनुमान 989
कच 989
अपरा@@ 988
इमार@@ 988
चुप 987
पहाड 987
रचना 987
पथ@@ 985
ाम 985
अभिनय 984
पेशल 984
तेरे 983
जानिए 982
सीख 982
गडकरी 981
अहमदाबाद 978
दाता 978
पायलट 978
पारिवारिक 978
मिशेल 978
शनी 978
सीतारमण 978
हजार 978
परं@@ 977
बड़े 977
शिकार 976
हमसे 976
यौन 975
लाश 975
खेले 974
जोश 974
नि 974
ली-@@ 974
जाएँगे 973
नित 973
सकेंगे 973
हवा 973
टोर 972
रेरणा 972
ंका 971
जौहर 971
टान 971
राजे@@ 971
आका@@ 970
नारेबाजी 970
जानें 969
झे@@ 969
करो@@ 968
रोजेक 968
करीबी 967
तकनी@@ 966
छूट 965
दाताओं 965
बहरहाल 964
सिलसिले 964
तुम@@ 963
रिगेड 963
उतर@@ 962
डिया 962
भेजे 962
आख 961
देवी 961
विजेता 961
ाना 961
एशि@@ 960
गेंद 960
चौहान 960
बोले 960
तेंदुलकर 959
थाओं 959
अनिवार 957
अवैध 957
तीसरा 957
वाणी 957
दिखाने 956
निकला 956
भूमि@@ 956
मसले 956
यॉर 956
आराम 955
ओवर 954
मानने 954
यूरो@@ 954
रीमती 954
रूट 954
संसदीय 954
संचालन 953
ौ 953
आग@@ 952
आन@@ 952
विंड@@ 952
विष@@ 952
सेवक 952
दीजिए 950
यकारी 950
सशक 950
ृ@@ 949
de@@ 948
लद 948
वुड 948
साझेदारी 948
कल@@ 947
परंतु 947
फायदेमंद 947
रोफे@@ 947
वजन 947
on@@ 946
नाबालिग 946
पारित 946
मै 946
वासन 946
टता 945
डेब 945
तथ 945
बताए 945
लेस 945
ईडी 944
टेबल 944
गदर 943
राओं 943
साइकिल 943
सेवन 943
परे@@ 942
तरीकों 941
बैंकों 941
खेलों 940
लए 940
ललए 940
अनुवाद 939
जहाज 939
बाजों 939
मशहूर 939
रायगढ 939
अभिषेक 938
परिक 938
बनना 938
चुनौतियों 937
वचा 937
अख 936
निवे@@ 936
राधि@@ 936
गूगल 935
डेंट 935
तराखंड 935
निभाई 935
बचपन 935
सभाओं 935
साह@@ 935
26 934
तरा@@ 934
अज़ाब 933
ारिश 933
१९@@ 933
यायमूर 932
असली 931
खेलने 931
फिर@@ 931
बरकरार 931
मुसलमानों 931
विमर 931
सद 931
ढ़ 931
कॉर 930
मांगी 930
लियन 929
सें@@ 928
खासकर 926
रोन 926
थक 925
दुः@@ 925
सकेगा 925
भुवनेश 924
वासियों 924
सुपर 924
काउं@@ 923
चेयरमैन 923
छी@@ 923
टाफ 923
तल 923
16@@ 922
ur@@ 921
गैर 921
पुल 921
मांड 921
यद 921
शहरी 921
सीजन 921
दबो@@ 920
बई 920
सुनाई 920
सुरे@@ 920
80 919
झाने 919
रसारण 919
झुठ@@ 918
धड 918
मायने 918
ोसी 918
मेन 917
at@@ 916
करी 916
जुलाई 916
गवर 915
भूल 915
यालयों 915
जड 914
ना-@@ 914
होम 914
जिनका 912
कैप 911
भौ@@ 911
याएं 911
सदन 911
तीसरी 910
ोल 910
अलर 909
आधुनिक 909
उनपर 909
याय@@ 909
रजिस 909
बोलने 908
रिटिश 908
क़ी@@ 908
अस@@ 907
नार@@ 907
चलाने 906
नसी@@ 906
ोत 906
मंडली 905
मोड 905
राथमिकता 905
रोमा@@ 905
सिलसिला 905
जेएनयू 903
मकान 903
यहू@@ 903
विवाह 903
संवेदना 903
उल@@ 902
गुरु@@ 902
पाउ@@ 902
सित@@ 902
हां@@ 902
ूंगा 902
na@@ 900
कथित 900
सेज 900
अट@@ 899
दो-@@ 899
विचारों 899
रमित 898
िला 898
आकाश 897
हानि 897
ch@@ 896
रिसर 896
फौरन 895
िला@@ 895
कारियों 894
बैक 894
रवी@@ 894
रुख 894
इंजीनियरिंग 893
कंगना 893
सफाई 893
विप@@ 892
28 891
अय 891
पदार 891
बास 891
रदू@@ 891
सीमा@@ 891
पादों 890
पीएम@@ 890
विशिष 890
वेद 890
कुल@@ 889
लगेगा 888
लीजिए 888
२@@ 887
चार@@ 886
देवेंद 886
संवाद 886
होटल 886
ताएं 885
बैं@@ 885
शह@@ 885
सोनम 885
तफ@@ 884
राएल 884
199@@ 883
आज@@ 883
दीपक 883
राफ 883
सीआरपीएफ 883
अंक 882
जेम 882
ञानिकों 882
नू 882
रतिनिधि 882
रारंभ 881
कने 880
झट@@ 880
बुरे 880
मुला@@ 879
हृ@@ 879
पेस 878
बेटियां 878
मिन@@ 878
काफ 877
देशवासियों 877
सदर 877
सुनी 877
आह 876
गुणवत 876
ताब 876
ज़मीन 876
उपभोक 875
दोष 875
ंबर 874
इसपर 874
डालें 874
जिनकी 873
नंद 873
पिन 873
सुख 873
500 872
घोटा@@ 872
देगी 872
धन@@ 872
मशी@@ 872
ज़ा@@ 872
परवाह 871
मंग@@ 871
आपसी 870
णि@@ 870
मॉडल 870
सिया@@ 870
कैसी 869
टीज 869
लैक 869
कनाडा 868
कलाकार 868
जेसन 868
णन 868
रेंड 868
शिरकत 868
साई 868
हीम 868
अख@@ 867
किसने 867
जीते 867
तापूर 867
नानी 867
नाराज 867
इंडस 866
धे 866
नेहरू 866
यूरोप 866
यूहन 866
लाता 866
ंसिंग 865
इंटरनेशनल 865
मणिपुर 865
मनी@@ 865
वायुसेना 865
सचमुच 865
सरदार 865
ma@@ 864
जोखिम 864
पंजी@@ 864
परा 864
वड 864
इनसे 863
ंची 862
एकमात 862
टूडेंट 862
दाद 862
यापार@@ 862
रावधान 862
सपा 862
हौ@@ 862
ंसक 861
ईं 861
ठि@@ 861
तेहैं 861
पीडि 861
अब@@ 860
चाहि@@ 859
पुरुषों 859
वाचन 857
ज़ा 857
as@@ 856
धव 856
शनल 856
70 855
लेट@@ 855
अगस 854
उमर 854
एसोसिएशन 854
जितना 854
रेडि@@ 854
जात 853
मानों 853
माह 853
लियां 853
शां@@ 853
अध@@ 852
एंट 852
भारती@@ 852
मंद 852
मिलियन 852
लेता 852
सॉफ 852
अरु@@ 851
चने 851
डॉ 851
तीश 851
देखो 851
यातना 851
रदेशों 851
ंचा 850
तुओं 850
परिणा@@ 850
मीटर 850
लेश 849
वां 849
आवास 848
कोट 848
ताज 848
नेट 848
पढ़े 848
खोज@@ 847
गवाही 847
टली 846
तूफान 846
बालों 846
याशी 846
लेगी 846
तलाशी 845
नॉर 845
शुद 845
काट 844
विजन 844
सेमीफाइनल 844
मृत@@ 843
आकार 842
पैर 842
रशंसा 842
रुद 842
कुर 841
भेद 841
इजाफा 840
ठु@@ 840
पवार 840
बलिदान 840
सैकड 840
इंडो@@ 839
मनिर 839
रोध 839
27 838
फीसदी 838
बाग 838
रकरण 838
लिंक 838
बिजनेस 837
यशा@@ 837
वितरण 837
-निर 835
अदा 835
इ 835
यि@@ 835
सिफ@@ 835
29 833
आरोपितों 832
ईद 832
गोले 832
चारिक 832
पहलू 832
मुंह 832
सांस@@ 832
सीमित 832
अपेक 831
गीय 831
नैतिक 831
विधायकों 831
ंदर@@ 830
दाऊद 830
बनाम 830
चीजों 829
जोशी 829
थितियों 829
निलंबित 829
नींद 829
वेशन 829
इश 828
परिसर 828
लगते 828
खबरें 827
यारों 827
रशासनिक 827
लिब 827
लेखनीय 827
k 826
जीवित 826
तैय@@ 826
निकले 826
पैन 826
लाभ@@ 826
अंध@@ 825
उक 825
तना@@ 825
दूध 825
बताती 825
पतरस 824
जीने 823
ढेर 822
तर-@@ 822
फसल 822
बल@@ 822
भा 822
तांत 821
पांडे 821
अनुकूल 820
रॉनिक 820
विध@@ 820
सील 820
मले@@ 819
यवाणी 819
नर@@ 818
पैमाने 818
रोजाना 818
लगाकर 818
आभार 816
तकलीफ 816
रि 816
टेंट 815
दिमाग 815
नमक 815
नाग@@ 815
नियाँ 815
राव@@ 815
इसीलिए 814
खुश@@ 814
चौथे 814
य-@@ 814
लैं@@ 814
ro@@ 813
दावे 813
बताने 813
रिहा 813
समझा 813
सूद 813
आईएस@@ 812
खरीद@@ 812
तहरीर 812
गैर-@@ 811
रभारी 811
हसन 811
जता@@ 810
जलवायु 810
धारा@@ 810
मुँह 810
गरम 809
जॉर 809
मुमकिन 809
सीखने 809
चुने 808
देनजर 808
आपसे 807
परेशानियों 807
योजनाओं 807
राथमिक 807
विधि 807
जीव 806
टिफि@@ 806
पियनशिप 806
फान 806
लख@@ 806
एकदम 805
तलाक 805
पि 805
रर 805
लालू 805
हाना 805
लेंस 804
छता 803
बचें 803
वयन 803
अजी@@ 802
हट 802
आये 801
मुं@@ 801
रकारों 801
it@@ 800
गंगा 800
दंड 800
मानव@@ 800
शियल 800
x@@ 799
इज@@ 799
खबरों 799
जील 799
सावधानी 799
दिखाते 798
निराश 798
वृ@@ 798
वैधानिक 798
तीं 797
मो 796
रयोगशा@@ 796
ंडी 795
फीचर 795
लॉक 795
शु 795
सीधा 795
आस@@ 794
कॉम 794
शिनाख 794
हुसैन 794
इत 793
डक 793
रतिभा@@ 793
ं-@@ 792
इंटरनल 792
फील 792
नौ 791
गीत 790
टियां 790
डीपी 790
यी@@ 790
योग@@ 790
सीई@@ 790
टुकड 789
अभिषिक 788
करवाई 788
गिनती 788
पाद@@ 788
पुलि@@ 788
रचार@@ 788
गू@@ 787
दुनिया@@ 787
देन 787
नायक 787
पीय 787
भले 787
राई 787
शिप 787
ुद 787
इम 786
कटरीना 786
मोटर@@ 786
खिताब 785
ृत 785
आरएसएस 784
थि 784
बुराई 784
मिसाइ@@ 784
लगती 784
लापरवाही 784
संतोष 784
जिंग 783
दहशत 783
पेश@@ 783
सबका 783
सहयोगी 783
कीय 782
यकाल 782
यहूदी 782
यूनतम 782
रोका 782
सिंध@@ 782
जहन 781
भलाई 781
रिप 781
हरे 781
14@@ 780
करी@@ 780
पसंख 780
रेलियाई 780
शुभारंभ 780
गांगुली 779
गेट 779
वेयर 779
u 778
टिकोण 778
तविक 778
भया@@ 778
सीएए 778
le@@ 777
-19 776
पटना 776
पाद 776
राफेल 776
वारा@@ 776
षवर 776
ंध 775
अवगत 775
जनवरी 775
पृष 775
लेम 775
वाद@@ 775
आंतरिक 774
डोर 774
पुरी 774
सीखा 774
ाब 774
टी-@@ 773
पॉजिटिव 773
योगिक 773
अपराधियों 772
कांत 772
दाश 772
रबंध@@ 772
लाठीचार 772
लु 772
टलर 771
नामां@@ 771
मनोज 771
ठिका@@ 770
मामूली 770
इंदिरा 769
गू 769
फैक 769
यवसाय 769
आजादी 768
एमसी 768
नाथन 768
विवरण 768
वेतन 768
कामयाबी 767
रतिदिन 767
वाओं 767
विडियो 767
समन 767
ओगे 766
कमरे 766
कोय@@ 766
गरीबों 766
नीति@@ 766
बक 766
रीब 766
संबो@@ 766
ऑर 765
कुफ 765
दुखी 765
यूष 765
रता@@ 765
रिजर 765
कमाई 764
खें 764
चंडी@@ 764
रायल 764
हल@@ 764
ाकर 764
जिट 763
डि 763
पहचा@@ 762
करेंगी 761
ठहरा@@ 761
ठान 761
रमो@@ 761
रीदेवी 761
विरासत 761
मने 760
रॉय@@ 760
आयतों 759
आरो@@ 759
एसडी 759
खुशखबरी 759
फेयर 759
हकी@@ 759
370 758
पान 758
बोलते 758
रत@@ 757
रसा@@ 752
शिष 752
b 751
तिन 751
2016 750
कद@@ 749
नेश 749
रें 748
करे@@ 745
राने 742
आजा@@ 740
विशेष@@ 740
संचा@@ 740
लोड 739
हान 739
लेज 738
वाह@@ 738
2.@@ 737
ील 736
षि 734
रशा@@ 733
शं@@ 732
g 727
रदार 726
काउ@@ 725
13@@ 724
ca@@ 724
रीज 723
शाह@@ 723
हरण 723
आलो@@ 722
200 721
ारो@@ 719
शत 717
खू@@ 716
रुप@@ 713
मोहन 711
माम@@ 707
वु@@ 706
साइट 706
सित 703
बदमा@@ 701
ताव@@ 700
हाई@@ 700
महे@@ 699
कोरो@@ 698
48 696
w 696
विष 695
po@@ 693
योगि@@ 693
आखि@@ 691
दम@@ 687
कारो@@ 686
भव 683
वेज 682
शुरु@@ 681
is@@ 677
थों 677
याद@@ 677
छू@@ 676
ऑपरे@@ 675
सॉ@@ 672
ri@@ 671
फोटो@@ 671
अधिक@@ 670
गाँ@@ 670
जय 670
ne@@ 668
सचि@@ 668
अमे@@ 667
हिर 667
खंड 666
रया@@ 666
लयों 666
मिन 665
ac@@ 664
ँच 664
माय@@ 663
किस@@ 662
कोशि@@ 662
दिल@@ 660
ढ़@@ 659
000 656
bi 656
तिहा@@ 656
खिल 653
हाद@@ 651
जार 650
अदा@@ 649
विजे@@ 649
al 646
lo@@ 646
हमला@@ 646
खिए 645
घ 645
जरू@@ 645
bj@@ 644
जब@@ 644
लेख@@ 644
mo@@ 641
un@@ 640
सूरत 639
भग@@ 638
ः@@ 634
देशी 634
se@@ 633
गतिवि@@ 629
सूच@@ 625
; 621
बेह@@ 621
गेंद@@ 620
धां@@ 620
di@@ 619
ing 619
एशन 619
कानू@@ 619
पंजा@@ 618
लीवुड 617
नाव 616
बों 616
नारा@@ 614
sh@@ 613
आए@@ 613
name 611
जेपी 611
हता@@ 607
इंटर@@ 604
नेक 603
me@@ 602
x 601
टेल 601
दिव@@ 601
कैम@@ 597
भाज@@ 597
संब@@ 597
देह 596
बीन 596
gov@@ 593
ऩ@@ 593
कात 592
indi@@ 590
li@@ 585
लंबित 585
लवा@@ 585
□ 583
सेवा@@ 579
si@@ 578
तरा 577
जाग@@ 575
आईपी@@ 574
चुनौ@@ 573
थम 572
@ 571
आयु@@ 571
मंजू@@ 571
रभा@@ 571
षमा 571
हथि@@ 568
मौजू@@ 567
ए-@@ 566
महारा@@ 563
राथमि@@ 562
रणा@@ 561
तला@@ 557
वेंद 557
सना 557
नती@@ 553
गति@@ 551
ंदन 550
निया@@ 550
तक@@ 548
वेश 548
भेड 547
णु 546
दि 545
ंचा@@ 543
भिन 543
ारियां 540
कंप@@ 539
याचि@@ 539
दबा@@ 532
युव@@ 532
संशो@@ 532
fi@@ 531
कठि@@ 530
तारी@@ 529
सार@@ 529
संसा@@ 528
पथ 527
गरी@@ 524
बह 524
अभिन@@ 522
इंडिय@@ 522
फाय@@ 522
le 521
विका@@ 521
la@@ 518
ment 518
समि@@ 516
बूल 514
टें 512
ता-@@ 510
बाइ@@ 509
धम@@ 508
विरो@@ 508
on 507
पहु@@ 507
याया@@ 506
ूत 504
अंतर@@ 501
५ 501
दह@@ 498
th@@ 495
अला@@ 495
मसी@@ 492
कोल@@ 491
३@@ 489
ha@@ 488
तरण 488
सभा@@ 487
ंकि 485
इंजी@@ 485
तकली@@ 483
नती 482
रशं@@ 479
रसार@@ 479
एसटी 477
जम@@ 475
ot@@ 472
मुकद@@ 471
रोजग@@ 467
v 466
डु 464
बंगा@@ 463
य़@@ 462
विल 461
अक@@ 460
पसं@@ 460
शि 460
सके@@ 458
mp@@ 457
५@@ 457
आगा@@ 455
उदा@@ 455
परेशा@@ 452
भरो@@ 452
मुदा@@ 452
काब@@ 451
वय@@ 449
नरे@@ 448
उन@@ 446
विधान 445
अमेरि@@ 443
शही@@ 442
शुभकाम@@ 442
सहा@@ 442
नाल 437
कीम@@ 436
२ 435
बंधन 433
बज@@ 433
यकों 433
जारों 427
लीन 427
१ 424
४@@ 424
+ 422
नाय@@ 421
फाई 421
वफा@@ 421
साउ@@ 420
सकर 418
ंधी 414
पिय@@ 414
आउ@@ 411
दाबाद 410
आतं@@ 409
फौ@@ 409
ww@@ 406
$ 404
दिर 404
सानी 403
&@@ 402
ंडी@@ 402
काउंट 402
नतम 402
लहाल 402
टेन 401
डिय@@ 401
आवे@@ 400
सीए@@ 400
मक@@ 399
गुण@@ 398
बरों 396
जें 393
ढे@@ 393
फैस@@ 393
z@@ 387
बालि@@ 387
रीम@@ 386
रतियोगि@@ 384
४ 380
पति@@ 378
हिं@@ 375
ताप@@ 374
राट 374
▪ 373
कारिक 371
तकर 371
संगठ@@ 369
९@@ 369
रती@@ 368
निग@@ 367
साझ@@ 366
षद 364
लीज 363
सीसी@@ 363
शेल 361
टेज 360
विशे@@ 360
tr@@ 358
यव@@ 358
कना@@ 355
६@@ 352
डू 351
सीय 349
भाल 348
मेडि@@ 346
रिके@@ 346
समुदा@@ 346
me 345
राब 345
ऱ 345
घन 343
समे@@ 343
मुझ@@ 341
३ 340
हाला@@ 337
सामा@@ 336
जेक 335
समझौ@@ 335
भागी@@ 332
साझे@@ 330
ंदगी 328
कीन 328
ठी@@ 328
ख़ 327
घोष@@ 326
चारी 325
डियम 325
निए 321
रेल@@ 320
रसू@@ 319
मही@@ 318
मता 317
डीज 316
मति 315
चस 314
यवसा@@ 313
महिला@@ 308
मिले@@ 307
नील 305
डस 304
वरण 304
वारों 304
६ 303
मश@@ 301
८ 301
नेह@@ 298
वहन 298
॰ 297
आश@@ 296
पारि@@ 295
हियों 295
ृ 295
७@@ 292
भुग@@ 291
८@@ 291
कोवि@@ 290
मेगा@@ 288
पीएफ 287
उ 286
मॉर 286
सुझा@@ 285
फेल 283
शुभ@@ 283
जलि 282
राजनी@@ 278
हिमा@@ 273
९ 273
लासा 271
कलीसि@@ 269
ँगे 268
णिक 267
७ 267
गृ@@ 266
अंदा@@ 264
आईआर 259
माम 258
कली@@ 256
मणि@@ 256
go@@ 254
एव@@ 254
-- 253
एसएस 253
सरी 248
हाड 248
» 244
अफगा@@ 241
आंदो@@ 239
तीस@@ 238
विधा@@ 236
शार@@ 234
मुठ@@ 232
ऎ@@ 231
शुरू@@ 230
तोष 229
अनि@@ 228
कीपर 228
डाउन 225
वादियों 225
..@@ 224
एक-@@ 224
ुक 223
वेब@@ 222
ारिज 222
बादी 220
वारदा@@ 220
&a@@ 219
ंदु@@ 219
qu@@ 215
अ 215
टरी@@ 214
लुस 214
बिज@@ 213
मि 213
थ-@@ 212
इंडीज 211
यहो@@ 211
रिये 208
संके@@ 208
ا@@ 207
एनआर@@ 207
तिम 206
वायु@@ 206
सराह@@ 205
विधान@@ 204
धुनिक 203
* 202
ंभ 202
वकी@@ 201
हिद 200
इंत@@ 199
इतिहा@@ 199
राबाद 199
बेंग@@ 196
हंगा@@ 196
तरस 195
लाव 195
हमे@@ 194
पृ@@ 193
पीट 191
घाय@@ 190
टवर 190
men@@ 188
z 184
यूजी@@ 184
केट@@ 181
खतर@@ 181
फाइन@@ 181
ï 178
ंगु@@ 178
सहम@@ 177
नुक@@ 174
बजा@@ 174
नदार 172
ॊ@@ 172
सिल@@ 171
# 170
धान@@ 170
मुंब@@ 169
नेत 168
बरें 167
अहम@@ 166
ंने 165
खूब@@ 165
लात 164
ॆ 164
बिल@@ 163
शुभार@@ 163
वजूद 161
कोविड@@ 160
मानत 157
ंख@@ 156
तरी@@ 155
कमे@@ 154
कोण 154
जौ@@ 154
सूस 154
‎ 153
नुष 152
चेयर@@ 151
तहरी@@ 151
हुल 151
गठ@@ 150
विंद 150
झार@@ 149
मीद@@ 149
वरि@@ 149
बड़@@ 146
ग़ 145
ैं 144
गृह@@ 141
जरी@@ 138
रभ@@ 138
• 138
शरी@@ 137
ॅ 137
बधा@@ 136
लॉक@@ 136
सबुक 136
समारो@@ 136
ैंस 134
एसोसि@@ 133
दिरा 133
बारा 131
→ 131
pos@@ 129
रधान@@ 129
ृंखला 129
विक@@ 128
इम@@ 127
ताब@@ 127
पुरु@@ 127
= 126
तेंदु@@ 125
दृ@@ 125
मिता@@ 125
वाही 124
विटा@@ 123
\ 122
इसी@@ 122
संबंध@@ 121
इंजीनिय@@ 120
वाणि@@ 120
विधा 120
गड@@ 119
रिगे@@ 119
j 114
अलग-@@ 114
ँकि 113
चारियों 112
मुम@@ 112
ل@@ 111
डिजि@@ 111
सीआर@@ 110
पिल 109
बलि@@ 109
टिश 108
हरिया@@ 107
धरी 106
बित 106
यायाधी@@ 106
ृंख@@ 106
ेक 106
निरं@@ 103
वेद@@ 103
आरोपि@@ 102
आयो@@ 101
चुना@@ 101
पता@@ 101
ó 97
चेताव@@ 97
रामी@@ 97
ङ 96
मू-@@ 96
हैद@@ 95
ï@@ 94
लोमीटर 94
सलाह@@ 94
मुकाब@@ 93
◆ 93
ऑन@@ 89
उपभो@@ 87
ऱ@@ 87
ारात 87
सेमी@@ 86
॥ 86
दिमा@@ 85
गोली@@ 83
ऩ 82
मरी@@ 82
م@@ 81
जेएन@@ 81
लूम 80
ंती 79
ر@@ 76
आंत@@ 76
लिमि@@ 76
तेल@@ 75
पॉजि@@ 73
و@@ 72
साब 72
q 71
सीसीआई 71
काता 70
छान@@ 70
नाबालि@@ 69
पिका 68
ˈ@@ 67
ن@@ 66
रेलि@@ 66
तमिलना@@ 64
निकों 64
औ 63
जिए 63
जोखि@@ 63
अनुसं@@ 62
सिलसि@@ 62
q@@ 61
आधि@@ 61
कंग@@ 61
जूद 61
डाउन@@ 61
विधे@@ 61
बात@@ 59
यादा@@ 59
विकेट@@ 59
ङ@@ 58
ओडि@@ 57
सोसि@@ 56
गंभी@@ 55
लाठी@@ 55
वारिक 55
सच@@ 55
हूर 54
ताछ 53
£ 52
ب@@ 52
चीत 52
अलग@@ 51
सऊ@@ 50
} 49
नशिप 49
फायदे@@ 49
राथ@@ 49
ة 48
μ@@ 47
तुर@@ 46
रतलब 46
लंका 46
सीतार@@ 46
हिंद@@ 46
` 44
शिर@@ 44
मुसल@@ 43
ع@@ 42
आतंक@@ 42
तिहासिक 42
नारे@@ 42
माता-@@ 42
ي@@ 41
परमा@@ 41
❑ 41
{ 40
षेक 40
`@@ 39
س@@ 39
ऍ@@ 39
ॢ@@ 39
а@@ 38
अवै@@ 37
रयोग@@ 37
विड 37
दीय 36
पादु@@ 36
্ 36
ت@@ 35
मुँ@@ 35
د@@ 34
ن 34
सानों 34
் 34
с@@ 33
▫ 33
अज़ा@@ 32
दूसर@@ 32
बिनेट 32
मुच 32
ح@@ 31
ंसू 31
पूत 31
रणा 31
रशास@@ 31
€ 31
﻿ 31
° 30
â@@ 30
р@@ 30
ج@@ 30
ی@@ 30
तेलंगा@@ 29
नाख 29
ृद 29
^ 28
о@@ 28
कृप@@ 28
ॊ 28
ā@@ 27
धानी 27
साथ-@@ 27
संस@@ 26
हासि@@ 26
 26
~ 25
ə@@ 25
н@@ 25
अधिकां@@ 25
ळ@@ 25
é@@ 24
ر 24
मिलना@@ 24
² 23
ش@@ 22
ंगुली 22
खबरी 22
तरीन 22
नागरि@@ 22
জেলা 22
124@@ 21
© 21
ɪ@@ 20
د 20
कामया@@ 20
परवरदि@@ 20
मामू@@ 20
शारी@@ 20
► 20
quot@@ 19
л@@ 19
ل 19
ک@@ 19
ی 19
दाऊ@@ 19
रहाल 19
हौल 19
× 18
к@@ 18
т@@ 18
ه@@ 18
धानिक 18
− 18
· 17
и@@ 17
ق@@ 17
ي 17
य़ 17
ó@@ 16
मुताब@@ 16
় 16
․ 16
е@@ 15
ب 15
پ@@ 15
छापे@@ 15
க@@ 15
් 15
် 15
₹ 15
¨ 14
а 14
б@@ 14
خ@@ 14
ü@@ 13
ː@@ 13
ο@@ 13
у@@ 13
ت 13
ف@@ 13
ك@@ 13
م 13
♪ 13
α@@ 12
ν@@ 12
ρ@@ 12
ط@@ 12
ऌ@@ 12
ਾ@@ 12
ி@@ 12
º@@ 11
æ@@ 11
ð@@ 11
́ 11
ς 11
й 11
ہ 11
ळ 11
ા@@ 11
ா@@ 11
β@@ 10
τ@@ 10
ا 10
ز@@ 10
ऑ 10
दंब@@ 10
मिताभ 10
मोबाइ@@ 10
याता@@ 10
ऽ 10
ਿ@@ 10
་ 10
❏ 10
§ 9
í@@ 9
ɔ@@ 9
п@@ 9
अयो@@ 9
रासत 9
ॐ 9
த@@ 9
ப@@ 9
ñ@@ 8
ɑ@@ 8
ə 8
ˌ@@ 8
κ@@ 8
м@@ 8
ь@@ 8
أ@@ 8
ص@@ 8
ع 8
ٹ@@ 8
घरे@@ 8
बुनिया@@ 8
भग 8
हासिक 8
জি@@ 8
ੰ@@ 8
ச@@ 8
က@@ 8
♫ 8
­ 7
ö@@ 7
β 7
λ@@ 7
ό@@ 7
в@@ 7
ы@@ 7
ض@@ 7
َ@@ 7
ہ@@ 7
अचा@@ 7
ऋ 7
লা 7
ਸ@@ 7
ம@@ 7
ர@@ 7
வ@@ 7
ி 7
ා@@ 7
း@@ 7
ြ@@ 7
´ 6
á@@ 6
â 6
ι@@ 6
π 6
н 6
گ@@ 6
ھ@@ 6
लापर@@ 6
ऽ@@ 6
ৰ@@ 6
ਰ@@ 6
ਲ@@ 6
్ 6
ಾ@@ 6
് 6
ม@@ 6
ང 6
င 6
ပ@@ 6
‚ 6
′ 6
❍ 6
 6
ﾥ@@ 6
ÿ@@ 5
ō@@ 5
ɒ@@ 5
ɛ@@ 5
ɡ@@ 5
α 5
ε@@ 5
ν 5
о 5
ф@@ 5
ق 5
ه 5
ُ@@ 5
ِ@@ 5
ّ@@ 5
ګ@@ 5
चिदंब@@ 5
टरीना 5
पसी 5
रदस 5
वनेश 5
গ 5
পুর 5
য 5
ਅ@@ 5
ਕ@@ 5
ਜ@@ 5
ਸ 5
ப 5
ய@@ 5
ನ@@ 5
ක 5
න@@ 5
ර 5
ර@@ 5
တ@@ 5
ေ@@ 5
ᱟ@@ 5
⁄ 5
≤ 5
➢ 5
本 5
 5
à 4
è@@ 4
ò 4
ô@@ 4
þ@@ 4
ī 4
ō 4
ɨ@@ 4
ʊ@@ 4
ʌ@@ 4
ʰ@@ 4
ʲ@@ 4
γ@@ 4
φ@@ 4
ύ@@ 4
г@@ 4
е 4
ц@@ 4
ה 4
ה@@ 4
ו@@ 4
إ@@ 4
ح 4
ز 4
ف 4
چ@@ 4
گ 4
केजरी@@ 4
परवर@@ 4
मजब@@ 4
ॠ@@ 4
ॽ 4
ট@@ 4
ধ@@ 4
ম@@ 4
রাম 4
ল@@ 4
হা@@ 4
া 4
ী 4
৳ 4
ਡ@@ 4
ਪ@@ 4
ਬ 4
ਬ@@ 4
ਵ@@ 4
ੀ 4
દ@@ 4
મ@@ 4
க 4
ட@@ 4
ன@@ 4
ம 4
ல 4
ு@@ 4
ా@@ 4
ක@@ 4
ග@@ 4
ත@@ 4
ร@@ 4
เ@@ 4
ཞ@@ 4
ခ@@ 4
ည 4
န@@ 4
ယ 4
ိ@@ 4
ု@@ 4
‟ 4
‪ 4
‬ 4
₱ 4
▸ 4
○ 4
に 4
ん 4
ッ@@ 4
 4
« 3
¶ 3
ç@@ 3
ù@@ 3
þ 3
ī@@ 3
ŋ 3
ŋ@@ 3
ƒ 3
ɾ@@ 3
ʃ@@ 3
ί@@ 3
ξ@@ 3
υ 3
ω@@ 3
з@@ 3
и 3
й@@ 3
т 3
у 3
я 3
י@@ 3
، 3
ج 3
ك 3
و 3
ى 3
ڈ@@ 3
ژ@@ 3
ऎ 3
ऒ@@ 3
गिराव@@ 3
लवामा 3
ॄ@@ 3
॒ 3
গঞ 3
জ 3
জি 3
ট 3
দা 3
ব 3
ব@@ 3
ববিদ 3
বা@@ 3
বিশ 3
যালয 3
সি@@ 3
া@@ 3
ার 3
ਂ@@ 3
ਆ@@ 3
਼ 3
ਾ 3
ੀ@@ 3
੍ 3
ત 3
ર@@ 3
વ@@ 3
ங 3
ர 3
ு 3
ை@@ 3
ோ@@ 3
ద@@ 3
న@@ 3
ి 3
ి@@ 3
ూ@@ 3
ದ@@ 3
ರ@@ 3
್ 3
ക@@ 3
ാ@@ 3
ං@@ 3
ඩ@@ 3
ත 3
ම@@ 3
ය 3
ය@@ 3
ල 3
ව@@ 3
ි@@ 3
ී@@ 3
ย@@ 3
า@@ 3
ี@@ 3
ဒ@@ 3
သ@@ 3
ီ@@ 3
း 3
ျ@@ 3
ᱦ@@ 3
◇ 3
✔ 3
エ@@ 3
三@@ 3
国 3
地@@ 3
州 3
新@@ 3
方 3
日@@ 3
武@@ 3
삼@@ 3
 3
® 2
³ 2
à@@ 2
ä@@ 2
å 2
æ 2
ç 2
é 2
ë@@ 2
ì@@ 2
ð 2
ú@@ 2
ē@@ 2
ı 2
ū@@ 2
ź@@ 2
ɐ@@ 2
ɛ 2
ɜ@@ 2
ɣ@@ 2
ɫ 2
ʁ@@ 2
ʃ 2
ʋ@@ 2
ʒ@@ 2
ʿ 2
ː 2
͡ 2
ά 2
ά@@ 2
έ@@ 2
ή 2
θ 2
θ@@ 2
μ 2
σ@@ 2
χ@@ 2
б 2
д@@ 2
к 2
х@@ 2
ш 2
ь 2
ю@@ 2
ֶ@@ 2
ּ@@ 2
נ@@ 2
ء@@ 2
آ@@ 2
ؤ@@ 2
ئ@@ 2
ث 2
ث@@ 2
خ 2
ذ@@ 2
ش 2
ط 2
ظ@@ 2
غ@@ 2
ْ 2
ْ@@ 2
ٹ 2
ښ@@ 2
ک 2
तीसर@@ 2
ও@@ 2
ক 2
ক@@ 2
কা@@ 2
কু@@ 2
খা@@ 2
গা@@ 2
ডা@@ 2
ন@@ 2
প 2
বান 2
বী 2
মা@@ 2
মান 2
মার@@ 2
মাল@@ 2
মুখ@@ 2
র@@ 2
লা@@ 2
শি@@ 2
সাগ@@ 2
ি@@ 2
ৰ 2
ৱ@@ 2
ਏ@@ 2
ਟ@@ 2
ਤ@@ 2
ਦ@@ 2
ਨ 2
ਮ 2
ਰ 2
ੂ@@ 2
ੇ@@ 2
અ@@ 2
ગ@@ 2
જ@@ 2
દ 2
ુ@@ 2
୍ 2
ட 2
ண 2
ண@@ 2
த 2
ன 2
ல@@ 2
ீ@@ 2
ூ@@ 2
ெ@@ 2
ே@@ 2
గ@@ 2
త@@ 2
బ@@ 2
మ@@ 2
ర 2
ర@@ 2
ల 2
ల@@ 2
హ@@ 2
ు 2
ಂ@@ 2
ಕ@@ 2
ತ@@ 2
ಯ@@ 2
ರ 2
ಲ@@ 2
ಶ@@ 2
ಿ 2
ಿ@@ 2
ು@@ 2
ം 2
ക 2
മ@@ 2
ല@@ 2
ള@@ 2
ජ@@ 2
ට 2
න 2
ප@@ 2
ල@@ 2
ස@@ 2
හ@@ 2
ු@@ 2
ก@@ 2
ม 2
อ 2
็ 2
่ 2
ག@@ 2
ལ@@ 2
ུ@@ 2
ོ@@ 2
န 2
မ@@ 2
ရ@@ 2
ာ@@ 2
္ 2
ᑦ 2
ᓄ@@ 2
ᓇ@@ 2
ᕗ@@ 2
ᱚ@@ 2
ᱨ@@ 2
ᱱ@@ 2
ṁ@@ 2
ṛ@@ 2
ồ@@ 2
ἀ@@ 2
‑ 2
† 2
› 2
≡ 2
★ 2
☞ 2
♥ 2
❖ 2
⟺ 2
す@@ 2
っ 2
ほ 2
ぽ 2
る 2
チ@@ 2
中@@ 2
九@@ 2
人@@ 2
天 2
島 2
手 2
日 2
星 2
本@@ 2
東@@ 2
民@@ 2
福@@ 2
空@@ 2
紫@@ 2
绿 2
西 2
関@@ 2
성@@ 2
자 2
전@@ 2
 2
￼ 2
😭 2
¥ 1
ª@@ 1
± 1
º 1
¼ 1
½ 1
ã 1
ê@@ 1
î@@ 1
ñ 1
ø@@ 1
ü 1
ý 1
ÿ 1
č@@ 1
đ@@ 1
ė@@ 1
ľ@@ 1
ł@@ 1
œ@@ 1
ś@@ 1
ş@@ 1
š@@ 1
ž@@ 1
ǐ@@ 1
ǜ 1
ɕ@@ 1
ɪ 1
ɽ 1
ʈ@@ 1
ʎ@@ 1
ʝ@@ 1
ʿ@@ 1
̃ 1
̍ 1
̠ 1
̯ 1
γ 1
δ 1
η@@ 1
λ 1
π@@ 1
ς@@ 1
σ 1
υ@@ 1
ω 1
ό 1
ώ@@ 1
в 1
ж@@ 1
з 1
л 1
с 1
ы 1
я@@ 1
і 1
ҷ 1
ַ@@ 1
ָ@@ 1
א@@ 1
ב 1
ג@@ 1
מ@@ 1
ע@@ 1
ר 1
ש@@ 1
ء 1
ض 1
غ 1
َ 1
ُ 1
ّ 1
ٱ@@ 1
ځ@@ 1
چ 1
ڈ 1
ڑ 1
ړ@@ 1
ڬ@@ 1
ں 1
ں@@ 1
ऍ 1
ऴ 1
ऴ@@ 1
ॐ@@ 1
ঁ 1
আলি@@ 1
আসা@@ 1
উড 1
ও 1
ওড 1
কংগ 1
কান 1
কাম@@ 1
কেন 1
খুল@@ 1
গা 1
গাঁ@@ 1
গু@@ 1
গে@@ 1
ঙ 1
ঙ@@ 1
চ@@ 1
চিমবঙ 1
চু@@ 1
জ@@ 1
জী@@ 1
ঝা@@ 1
ঝাড 1
টন 1
টর 1
টা 1
টি@@ 1
টু@@ 1
ঠি 1
ড 1
ঢাকা 1
ণ@@ 1
ত 1
ত@@ 1
তক 1
তৃণমূল 1
দ 1
দ@@ 1
দর@@ 1
দা@@ 1
দি 1
দি@@ 1
ধু@@ 1
ন 1
না 1
না@@ 1
নাগ@@ 1
নাম@@ 1
নায 1
নির@@ 1
নী@@ 1
প@@ 1
পর@@ 1
পশ 1
পূর 1
পে@@ 1
ফা@@ 1
বর 1
বাং@@ 1
বাড 1
বিল 1
বু@@ 1
ভা@@ 1
ভারতীয 1
ভিক 1
ম 1
মু@@ 1
মুসল@@ 1
যাদ@@ 1
যানার 1
রাজ@@ 1
রামীণ 1
রাহ 1
রীয 1
রেস 1
ল 1
লাল@@ 1
লি 1
লি@@ 1
লী 1
লুক 1
লে@@ 1
শু@@ 1
ষ 1
ষ@@ 1
সংশো@@ 1
সর 1
সা@@ 1
সু@@ 1
সৈ@@ 1
হাই@@ 1
ি 1
িয 1
ীরা 1
ুন 1
ূ@@ 1
ਈ 1
ਉ@@ 1
ਐ@@ 1
ਕ 1
ਗ@@ 1
ਚ 1
ਚ@@ 1
ਟ 1
ਠ@@ 1
ਣ 1
ਣ@@ 1
ਤ 1
ਨ@@ 1
ਯ@@ 1
ਹ 1
ਹ@@ 1
ੁ@@ 1
ੇ 1
ੋ@@ 1
ੜ 1
ક@@ 1
ટ 1
ઠ@@ 1
ડ 1
ણ 1
ભ@@ 1
ય@@ 1
ળ 1
ી@@ 1
ે@@ 1
ો 1
્ 1
କ@@ 1
ଡ 1
ଦ 1
ନ 1
ପ@@ 1
ର@@ 1
଼ 1
ା 1
ା@@ 1
େ@@ 1
அ@@ 1
ச 1
ந@@ 1
ள 1
ழ 1
ழ@@ 1
ஸ 1
ா 1
ொ@@ 1
ం@@ 1
ఇ@@ 1
క@@ 1
చ@@ 1
జ@@ 1
డ@@ 1
ద 1
ప@@ 1
బ 1
భ@@ 1
వ@@ 1
ష 1
ా 1
ు@@ 1
ె@@ 1
ై@@ 1
ಕ 1
ಗ 1
ಜ@@ 1
ಟ@@ 1
ಣ 1
ತ 1
ದ 1
ಪ@@ 1
ಮ 1
ಮ@@ 1
ಯ 1
ಹ@@ 1
ಾ 1
ು 1
ೃ@@ 1
ೇ@@ 1
ആ@@ 1
ട@@ 1
ണ 1
ണ@@ 1
ദ@@ 1
ന 1
ന@@ 1
ര 1
ര@@ 1
റ@@ 1
ല 1
ി 1
ി@@ 1
ീ@@ 1
ു@@ 1
േ@@ 1
ൊ@@ 1
ණ@@ 1
ැ@@ 1
ි 1
ු 1
ූ@@ 1
ේ 1
ො@@ 1
ค@@ 1
ง@@ 1
จ@@ 1
ช@@ 1
ต@@ 1
ท@@ 1
บ@@ 1
ล@@ 1
ส@@ 1
ห@@ 1
ิ 1
ี 1
ุ@@ 1
ู 1
แ@@ 1
ใ@@ 1
์ 1
། 1
ད 1
ན@@ 1
བ@@ 1
མ 1
མ@@ 1
ཚ@@ 1
ར@@ 1
ས 1
ོ 1
ྕ@@ 1
ྫ@@ 1
ྲ 1
စ@@ 1
ပ 1
ယ@@ 1
လ@@ 1
ု 1
ူ@@ 1
ဲ@@ 1
ွ@@ 1
၊ 1
ᐅ 1
ᛀ@@ 1
គ@@ 1
ង 1
ធ@@ 1
រ@@ 1
អ@@ 1
ំ 1
្ 1
ᱛ 1
ᱛ@@ 1
ᱜ@@ 1
ᱡ@@ 1
ᱤ@@ 1
ᱮ@@ 1
ᱴ 1
ᱵ@@ 1
ᱽ 1
ḥ 1
ḥ@@ 1
ṇ@@ 1
ṭ@@ 1
ṳ 1
ằ@@ 1
ἔ@@ 1
ῆ 1
‏ 1
‒ 1
― 1
″ 1
℞ 1
← 1
↲ 1
∕ 1
∪ 1
≥ 1
☊ 1
♦ 1
➖ 1
➲ 1
⦁ 1
い@@ 1
さ@@ 1
た@@ 1
ま@@ 1
カ 1
グ@@ 1
サ 1
サ@@ 1
ス@@ 1
チ 1
ッ 1
ト@@ 1
プ 1
プ@@ 1
ラ@@ 1
リ@@ 1
ル 1
ン 1
ン@@ 1
ー 1
ー@@ 1
乐 1
代@@ 1
会@@ 1
使 1
侠@@ 1
倭 1
倭@@ 1
公@@ 1
兰@@ 1
共@@ 1
加@@ 1
動@@ 1
北@@ 1
华@@ 1
南@@ 1
博@@ 1
印 1
印@@ 1
原 1
发@@ 1
司 1
和@@ 1
品@@ 1
哈@@ 1
唐@@ 1
喜@@ 1
国@@ 1
圖 1
坡@@ 1
垣 1
墨 1
多@@ 1
夜 1
太@@ 1
子 1
宁 1
安 1
宫@@ 1
寺 1
小@@ 1
尔@@ 1
峰 1
市 1
年@@ 1
度@@ 1
康 1
建 1
弁 1
式@@ 1
微@@ 1
快@@ 1
恭@@ 1
才 1
故@@ 1
星@@ 1
朗@@ 1
林 1
株@@ 1
機 1
汉 1
江@@ 1
海@@ 1
淡@@ 1
滨 1
照 1
物@@ 1
王 1
珠@@ 1
瑪@@ 1
田@@ 1
畿 1
白 1
相 1
社@@ 1
祝@@ 1
福 1
穆@@ 1
空 1
筑@@ 1
節@@ 1
織@@ 1
羅@@ 1
羊@@ 1
自@@ 1
航 1
航@@ 1
苏 1
菩@@ 1
蓝 1
薩 1
藏@@ 1
表 1
証 1
说 1
豊@@ 1
財 1
财 1
路 1
路@@ 1
近@@ 1
道 1
鎮@@ 1
铁@@ 1
関 1
院 1
電@@ 1
青@@ 1
食@@ 1
성 1
스@@ 1
업 1
타@@ 1
트@@ 1
 1
 1
 1
 1
 1
 1
 1
 1
 1
 1
 1
 1
， 1
ﾥ 1
￡ 1
👉 1
🙂 1
🤩 1
madeupword0000 0
madeupword0001 0
madeupword0002 0
madeupword0003 0
madeupword0004 0
