্ 5547445
। 1468180
, 536070
প 482008
় 369950
ত 319033
য 290196
ও 210301
স 205558
ব 186990
এই 169832
ট 168334
ক 167950
করে 140271
না 138133
দ 137141
যে 136117
এবং 129026
জন 125571
র 124926
করা 110184
রী 109024
তিনি 95595
তার 91531
এ 85802
গ 82512
হয়েছে 81689
তা 81336
গে 80696
পর 80525
হবে 79554
থেকে 77400
সম 76517
ন 74163
সঙ 74012
পুলিশ 73822
কে 72213
? 71683
র@@ 71447
হয় 68133
আর 67860
&quot; 65832
’ 65296
শ 64690
ড 63397
মধ 62584
তে 62384
টি 60739
ছে 60097
কর 59918
তাদের 59354
করতে 59000
একটি 58860
নির 57584
তি 57122
যা 56720
কিন 55317
ে 54904
ম 54708
: 53924
আমরা 53876
নিয়ে 53815
‘ 52314
ব@@ 52036
ম@@ 51762
ষ 51721
বি@@ 51583
তু 50768
এর 50672
আমি 50013
ক@@ 50002
এক 49854
যান 48783
আমাদের 47919
) 46690
যা@@ 45941
করেছে 45673
মন 45238
অন 45082
-@@ 45068
ন@@ 44915
( 44869
সেই 44422
তাঁর 44189
য@@ 44019
বর 43676
রাজ 43065
ত@@ 43044
ছিল 42671
রে 42446
ল 42307
বন 42275
করেন 42133
. 41840
ধে 41600
কেন 41536
জ 41289
স@@ 41032
তারা 40750
রধানমন 40569
ধ 40535
অ@@ 40474
রা@@ 39835
কার 39014
টা 38475
উদ 38437
বলে 38289
তবে 37567
বিশ 37314
ল@@ 36903
করার 36749
রয়েছে 36654
রা 36529
বা@@ 35790
রি@@ 35297
প@@ 35209
সে 35186
হয়ে 35129
ই 34946
যায় 34820
আ@@ 34663
আমার 34415
া 34405
বলেন 34384
েছে 34380
থ 34145
হয 33668
করেছেন 33474
হচ 33294
ই@@ 33279
ভারতের 33247
না@@ 33094
দের 32475
বাস 32218
শুরু 31953
মা@@ 31570
কিছু 31441
সন 31167
চ 31152
তর 30887
জ@@ 30873
তা@@ 30806
এ@@ 30790
বিরুদ 30727
কথা 30629
ট@@ 30500
থা 30370
তদন 30347
ণ 30316
কাজ 29835
কোনও 29766
কা@@ 29582
ওই 29353
ছিলেন 29158
বার 28832
নেই 28814
গ@@ 28498
&apos; 28080
নি@@ 28077
উত 28076
যের 28073
বে 28004
যক 27572
কি 27531
ার 27461
কী 27404
শ@@ 27313
“ 27305
কাছে 27158
হ@@ 27079
সি@@ 26930
বে@@ 26829
ইন 26817
কংগ 26692
পা@@ 26677
পারে 26604
সা@@ 26567
অ 26515
লা@@ 26488
নের 26360
ভারত 26320
সমস 26313
আরও 26305
ষা 26165
সে@@ 26047
দ@@ 26045
ঘটনার 25502
এটা 25498
রে@@ 25389
ও@@ 25135
ঘটনায় 25089
সময় 24964
সু@@ 24960
লি@@ 24899
মৃত 24859
রের 24703
অর 24687
নয় 24555
পরে 24462
খবর 24220
মি@@ 24220
া@@ 24199
যন 24131
পি@@ 23865
বা 23799
রতি 23685
মুখ 23681
রো@@ 23472
লি 23472
তের 23443
দিন 23364
তি@@ 22997
রান 22902
ধ@@ 22896
অনেক 22852
টি@@ 22787
‌ 22686
পাকিস 22553
কা 22518
দেওয়া 22452
মা 22326
ষ@@ 22264
দেশ 22069
” 22039
দুই 22017
দেখা 22016
কের 21944
সব 21928
লে 21926
দি@@ 21864
ষেত 21851
দিল 21796
মার 21787
ের 21781
মে@@ 21749
চ@@ 21701
দু 21576
যবস 21551
হল 21549
রক 21488
দুর 21438
সরকার 21423
অবস 21401
নরেন 21306
জা@@ 21301
টে 21221
বিজেপি 21220
লক 21001
তাকে 20803
এটি 20669
নতুন 20606
শিক 20572
ফ 20503
আছে 20442
তন 20423
ড@@ 20408
ডি@@ 20307
দেশের 20221
হা@@ 20102
কোনো 20070
বের 20056
- 19886
হতে 19848
কে@@ 19777
য়@@ 19693
কো@@ 19583
চিত 19473
গুলি 19164
নে@@ 19026
ঘটনাস 18989
রেস 18933
এতে 18895
উ@@ 18892
অভিযুক 18857
দা@@ 18847
লের 18699
রথম 18671
নি 18598
যার 18568
তাই 18524
এখনও 18421
পক 18350
অভিযোগ 18272
টির 18262
থ@@ 18233
ধান 18177
নে 18143
টের 18127
জি@@ 18118
হাসপাতালে 18007
বিষয়ে 17997
ভাবে 17984
সর 17816
ফ@@ 17703
রত 17684
লে@@ 17657
সিদ 17593
যাবে 17581
পড 17520
যমন 17483
পূর 17472
গান 17403
রস 17318
হ 17173
সত 17116
রু@@ 17113
একজন 17062
হয়নি 17018
মাধ 16778
কোন 16777
যোগ 16771
চা@@ 16626
য়া 16588
উন 16569
বিভিন 16556
বেশি 16550
মামলা 16520
দিয়ে 16506
মান 16424
তান 16380
বেশ 16321
দু@@ 16297
একটা 16275
ধার 16247
! 16211
য়া@@ 16180
তির 16107
অস 16069
রার 16065
করছে 16049
কি@@ 16034
ি 15994
সংস 15911
আল 15905
য় 15864
খ@@ 15844
ে@@ 15835
জানান 15816
খুব 15799
ভারতীয় 15796
ঘটনা 15794
টার 15788
এমন 15769
লা 15763
আপনি 15753
ফলে 15751
অনুষ 15695
নার 15634
যমে 15620
গত 15607
কু@@ 15579
মনে 15544
গা@@ 15525
ভ@@ 15478
যাচ 15468
এক@@ 15289
ষে 15282
রাম 15171
হয়েছিল 15152
তো 15080
ভা@@ 15067
মোদী 15055
শি@@ 15036
সার 14936
তাঁদের 14935
ধর 14922
ঙ 14844
ছবি 14842
পে@@ 14776
উপ@@ 14745
সের 14614
য়ে 14592
হিসেবে 14570
থিত 14511
চি@@ 14506
আপনার 14456
শন 14419
আগে 14400
কারণ 14371
যু 14342
সেখানে 14312
রকাশ 14288
খা@@ 14253
কেউ 14241
সাহায 14226
বাড 14182
ী 14171
ছেন 14152
যাল 14147
করি 14122
তখন 14080
সিং 14078
চার 14062
জে@@ 14043
দে@@ 14008
টে@@ 13954
আহত 13942
সহ 13890
েই 13821
খ 13761
রি 13758
যদি 13713
রীয় 13692
করবে 13619
পুলিশের 13588
থাকে 13575
শক 13557
রাষ 13555
পার 13523
পরিস 13401
য়ের 13367
মান@@ 13325
উপস 13297
জানা 13284
মতো 13255
চলছে 13216
ভি@@ 13210
মু@@ 13190
তাঁকে 13169
ঈশ 13135
শা@@ 13127
থলে 13032
খান 13021
যখন 13010
রেফতার 12984
করেছিলেন 12926
রী@@ 12914
পরীক 12869
যাত 12858
আন 12814
কর@@ 12741
তব 12712
গুলো 12694
মানুষ 12665
আই@@ 12649
নিশ 12649
দিতে 12605
তিন 12597
মো@@ 12574
সদস 12553
সংখ 12534
দেন 12509
রধান 12500
হে@@ 12474
রাক 12434
চেষ 12416
য়ার 12325
নিয 12318
েছেন 12311
সরকারের 12308
দল 12243
ণ@@ 12225
লাহ 12211
গু@@ 12155
িত 12146
গুরুত 12136
ষণ 12088
ভ 12082
তথ 12070
নেওয়া 12058
হন 12057
দেশে 12056
ডে@@ 12044
ফি@@ 12037
বিষয়টি 12034
ঁ@@ 12014
য়ে@@ 11990
জানিয়েছেন 11985
তানের 11975
মের 11961
যুক 11855
দাবি 11848
ভর 11779
সং@@ 11773
পের 11695
ি@@ 11681
দা 11679
সাথে 11661
সি 11581
গেছে 11556
অনু@@ 11543
রয 11480
পরিবারের 11473
নিজের 11456
তী 11436
থা@@ 11407
পত 11398
বিক 11396
উল 11336
নাম 11317
ং@@ 11297
জনের 11288
ফে@@ 11260
১ 11259
করুন 11162
ধরনের 11161
সো@@ 11158
তেই 11117
লো@@ 11108
ডের 11104
হলে 11101
আক 11094
ড়@@ 11094
করবেন 11061
আত 11033
লেন 10990
পদ 10979
— 10978
যদিও 10967
কারণে 10930
ঞ 10929
যারা 10924
পু@@ 10917
দক 10881
উচিত 10852
হি@@ 10828
এস@@ 10823
যাপারে 10812
-এর 10806
পাওয়া 10801
অবশ 10800
ষার 10773
তৈরি 10763
টা@@ 10737
দিকে 10730
মে 10720
জো@@ 10550
থান 10516
রই 10513
রায় 10483
বিদ 10421
ু 10419
দর 10414
ঘ@@ 10410
জন@@ 10370
যে@@ 10368
ধি 10350
রহণ 10348
৩@@ 10347
দেয় 10327
সংক 10326
রশ 10323
বল@@ 10291
শেষ 10281
৫ 10272
গিয়েছে 10267
হত 10266
বস 10262
দলের 10218
পারেন 10138
তে@@ 10115
পার@@ 10090
– 10083
যবহার 10061
বিশেষ 10047
ওয়া@@ 10017
ওপর 10002
চিন 9989
দেশ@@ 9984
বলেছেন 9959
সোশ 9948
চলে 9943
রীর 9890
কারী 9864
দেখ@@ 9849
তিতে 9845
কার@@ 9844
মানুষের 9754
যু@@ 9745
২ 9724
দায়ের 9713
যায়নি 9688
জেলা 9678
টিতে 9625
গুলির 9624
দিয়েছে 9578
ষা@@ 9570
রাহুল 9569
শর 9567
ভিত 9564
বলা 9539
যেই 9525
করছেন 9508
পি 9501
পেয়ে 9409
ছবিতে 9406
অভিনয় 9367
পরিবর 9342
ো 9317
রয়েছেন 9310
জি 9291
নিরাপত 9269
ভালো 9248
সভাপতি 9221
অব@@ 9213
তম 9213
বীকার 9184
েছিল 9170
লার 9168
বাদ 9156
রতি@@ 9155
মূল 9150
গে@@ 9143
গো@@ 9135
থিতি 9121
ভিডিও 9112
পরি@@ 9055
বক 9049
হার 9049
দি 9035
রাস 9018
বো@@ 9015
টাকা 9012
ো@@ 9010
ছাত 9001
ধরে 8984
শো@@ 8947
পাশাপাশি 8936
গিয়ে 8926
তমানে 8891
গড 8883
করেছিল 8858
ু@@ 8858
ং 8855
নী@@ 8832
বরের 8828
তোমাদের 8813
হয়েছেন 8804
থাকবে 8787
লু@@ 8756
এখানে 8752
বিস 8744
এস 8734
ান@@ 8727
বৃদ 8721
মর 8708
নেতা 8697
তদের 8683
শে@@ 8663
এরপর 8659
পদক 8658
পুর 8650
দুটি 8644
তু@@ 8623
৪@@ 8622
ঘোষণা 8621
ার@@ 8598
ভাল 8581
বেন 8570
ছি 8538
হওয়ার 8527
কাশ 8524
ভে@@ 8512
শান 8484
গি@@ 8456
বিজেপির 8444
৩ 8444
ানো 8430
এম@@ 8409
বু@@ 8394
বান 8359
কোর 8353
কম 8334
থার 8328
তাঁরা 8304
ছা@@ 8217
হাতে 8209
রণ 8205
েন 8203
একই 8197
দিয়েছেন 8195
যই 8189
ঠিক 8177
ইউ@@ 8129
নয 8115
চে@@ 8113
ডি 8110
হিন 8101
ষেপ 8075
ডে 8057
কীভাবে 8056
রুত 8025
মুক 8024
ঠ@@ 8008
বপূর 8003
উপর 7999
তায় 7994
নিতে 7990
যেতে 7984
ী@@ 7962
৫@@ 7941
মত 7933
রেপ 7927
ইস 7926
শিল 7913
জার 7888
সাক 7879
ওয 7873
বিষয় 7856
বড় 7853
নিন 7847
৪ 7846
ধী 7830
অঞ 7808
পো@@ 7803
থেকেই 7793
সেটা 7786
তেও 7774
াও 7766
তুলে 7760
তার@@ 7711
মুম 7687
ষের 7645
যাঙ 7642
ান 7615
ভারতে 7609
অংশ 7592
ঠানে 7576
রও 7558
বিজ 7541
জনকে 7538
গের 7528
দীর 7528
আমাকে 7524
সমর 7505
জানিয়েছে 7504
লির 7489
গোটা 7481
সাধারণ 7474
ভাব@@ 7453
আজ 7452
ধন 7436
কুমার 7422
যান@@ 7412
ায় 7398
সুপ 7393
ীয় 7384
যেন 7382
আর@@ 7367
নিহত 7339
রদেশ 7324
সৃষ 7314
পে 7306
.@@ 7291
-র 7283
হাজার 7279
ছ@@ 7271
ডা@@ 7267
মী 7246
-- 7227
মারা 7220
তাহলে 7213
জীবন 7202
চন 7195
অধিনায়ক 7183
তোমরা 7180
অগ 7177
রিম 7163
ানোর 7142
বল 7126
তুমি 7122
সুযোগ 7111
ভব 7094
খুবই 7088
শু@@ 7056
রেসের 7036
ীর 7035
ছাড়া 7032
৬ 7012
বি 7003
দেহ 6981
রতিষ 6948
থী 6937
রণ@@ 6935
পর@@ 6919
রপতি 6911
রেসিডেন 6906
এন@@ 6896
মাত 6895
যাক 6887
রিয 6883
এবার 6873
পারি 6873
বিষয 6873
বৈঠকে 6873
রিস 6817
অব 6813
চরিত 6800
ছাড 6800
ানি 6781
করলেন 6773
কোটি 6758
ঘা@@ 6752
রম 6748
আনন 6744
২@@ 6738
থায় 6730
জম 6725
যায 6724
দান 6716
বী@@ 6702
রকম 6686
জু@@ 6685
দেওয়ার 6685
কাজে 6671
দন 6669
পন 6666
জানানো 6664
ছা 6654
দেখে 6653
তল 6650
করছি 6642
টার@@ 6635
তাতে 6631
পড়ে 6630
যিহোবার 6627
কদের 6625
হো@@ 6623
উচ 6616
রিয়া 6615
অত 6614
জা 6604
বারা 6597
জাতিক 6596
সা 6583
ছবির 6580
ধা@@ 6580
নো@@ 6575
আটক 6564
১@@ 6559
বড 6548
লেখ 6545
মিডিয়ায় 6542
৬@@ 6542
চাই 6516
টো@@ 6516
আলোচনা 6508
গুরুতর 6494
অভি@@ 6486
ীদের 6451
লো 6443
ড় 6425
হু@@ 6424
রকল 6421
তারপর 6400
ভো@@ 6399
নিয়ন 6397
যুদ 6391
তো@@ 6388
মহারাষ 6385
কেও 6372
দিনের 6371
রাজ@@ 6363
কেই 6356
পুলিস 6355
ইতিমধ 6352
পান 6352
বছর 6347
দায়িত 6342
পশ 6318
ছ 6312
টেস 6306
থানায় 6302
রাই@@ 6293
রাখা 6289
ভার 6272
লাম 6258
শুধু 6255
জিজ 6251
ানের 6247
দার 6238
কম@@ 6235
সপ 6233
দাম 6224
যাতে 6214
দেখতে 6205
আস@@ 6203
খে@@ 6203
অক 6197
জেলার 6189
বৃষ 6187
৮@@ 6181
হওয়া 6177
অথবা 6173
করেছি 6173
েছি 6169
সহ@@ 6168
বাচন 6161
সব@@ 6149
নিজেদের 6121
জল 6118
চার@@ 6106
কাপুর 6097
শের 6096
চলেছে 6094
ভার@@ 6081
তিক 6077
এসে 6074
ভাইরাল 6066
রিকেট 6061
কল 6054
রয়োজন 6047
জের 6041
এসব 6040
/ 6038
জাতীয় 6033
ধার@@ 6016
করি@@ 6014
পাল 6006
ফের 6004
বলতে 6000
৭@@ 5980
সবচেয়ে 5972
এলাকায় 5971
আগুন 5968
গুলিতে 5967
অধ 5951
মার@@ 5950
থাকা 5940
রিয় 5939
তেন 5928
জে 5925
জঙ 5896
ণা@@ 5892
৷ 5865
কন 5856
কাছ 5845
৮ 5833
সময়ে 5832
থাকতে 5826
বাস@@ 5825
মীর 5824
যাওয়া 5822
ডার 5809
রন 5797
রেন 5797
ঠ 5788
পোস 5786
শাস 5781
মহিলা 5778
নেন 5777
বিরাট 5773
সেন 5772
মি 5768
পরই 5757
আসে 5751
গুলোর 5741
জয় 5740
ঝ@@ 5739
পুরস 5734
রাও 5727
৭ 5699
যো@@ 5671
গেল 5661
বাক 5655
সময 5651
বহু 5642
পড়@@ 5639
সূত 5625
১৯@@ 5617
ইনস 5614
লী@@ 5611
যিহোবা 5604
লাভ 5600
মী@@ 5593
অমিত 5584
জারি 5576
সক 5576
রহ 5570
আবেদন 5568
সবাই 5559
দিয 5546
ানা 5533
দিক 5521
েছিলেন 5505
রিক 5489
মদ 5473
ফা@@ 5463
পঞ 5453
ওয়ার 5450
নকে 5443
সম@@ 5442
সারা 5429
পা 5425
ভারতীয 5412
নেতৃত 5411
মহা@@ 5393
টিকে 5390
দী@@ 5389
শীর 5388
রম@@ 5386
হিসাবে 5378
োর 5376
রদেশের 5375
যাম 5374
জনক 5371
পরেই 5371
লাই@@ 5367
থানীয় 5355
গর 5352
আদালত 5351
থি@@ 5339
রাম@@ 5318
অভিনেত 5305
ফল 5299
রযুক 5289
বই 5286
পষ 5273
১০ 5270
শেয়ার 5269
হস 5266
একাধিক 5260
ণের 5240
কাল 5233
সুস 5233
শা 5216
পরবর 5215
বাবা 5211
সামনে 5206
ষিণ 5205
বিতীয় 5203
শাহ 5203
মিক 5200
আশা 5197
ভবিষ 5191
সমা@@ 5176
রমণ 5167
নার@@ 5161
ানা@@ 5155
ঃ 5154
চল@@ 5147
মেন 5138
করল 5126
কিছুই 5122
তক 5110
তকে 5105
ছেলে 5102
যদের 5099
সঞ 5096
সর@@ 5088
ককে 5083
রণে 5083
দল@@ 5077
ঘটেছে 5072
মোদীর 5068
সাই@@ 5067
অফ 5059
নামে 5057
এখন 5051
ঘ 5039
কভাবে 5037
মোদি 5037
রসঙ 5035
সার@@ 5033
এদিন 5032
রায 5028
করণ 5023
াই 5017
রাজস 5015
পরিবার 5013
সামাজিক 5010
রাখতে 5007
পণ 5004
আগামী 5002
ড়া 4999
পাঠানো 4997
বিষয়@@ 4994
শে 4992
এই@@ 4990
রকে 4990
ড়ে 4986
নম 4982
তিকে 4969
এখনো 4961
পথ 4958
লাশি 4947
বচ 4938
আইন 4933
আবার 4929
নিক 4928
যস 4927
দেওয 4925
যেখানে 4909
রীয 4891
ইচ 4890
ববিদ 4885
বিচারপতি 4884
ভাবনা 4882
ধু@@ 4873
যি@@ 4867
৯ 4867
এটাই 4866
দরকার 4866
ড়া@@ 4858
যুর 4853
গাড 4851
ধি@@ 4847
করব 4836
ণে 4834
ঘট@@ 4832
ানি@@ 4830
ডা 4824
পরামর 4813
রাখ@@ 4811
গার 4810
শহর 4810
রামে 4802
চল 4801
সেনা 4786
ভক 4782
আরো 4775
রদ 4769
সরকারি 4757
রাজনৈতিক 4752
য়ান 4751
মাস 4746
ভাগ 4736
আগ 4726
রাপ 4721
পনা 4718
গি 4713
নও 4712
মুহূর 4709
যাওয়ার 4709
ঠান 4708
পানি 4707
যপ 4705
ষক 4702
সতর 4697
এসেছে 4693
আপ@@ 4686
ফো@@ 4684
থানে 4683
দে 4680
চাই@@ 4677
বলেছিলেন 4675
বদ 4671
গল 4669
িয়ে 4661
তিনটি 4655
দো@@ 4654
শী@@ 4643
হামলার 4643
বাইবেল 4638
রিপোর 4629
দিনে 4623
০@@ 4622
ধা 4621
তৃ@@ 4618
তী@@ 4617
মিথ 4607
জান@@ 4604
টন 4603
লড 4599
পরিকল 4598
হার@@ 4596
ঞান 4591
ফিরে 4587
মেয়ে 4581
২০@@ 4580
লেই 4576
সুতরাং 4569
দিত 4554
বাচনে 4551
কান 4547
তাদেরকে 4544
মকর 4543
পাঠ@@ 4540
ভাই@@ 4536
টু@@ 4535
পৌঁছে 4533
টাই 4516
এগিয়ে 4512
কখনও 4502
হলেন 4497
সংঘর 4485
পথে 4483
s 4477
ষিত 4465
ধু 4464
রদর 4463
থল 4461
পালন 4453
ধের 4450
যেমন 4439
বলিউড 4426
ঘটে 4422
চিকিৎসা 4421
ঘটনাটি 4419
বাহিনী 4419
অভিযান 4417
থন 4416
আম@@ 4403
a@@ 4402
ভুক 4402
কাজের 4398
নাই 4391
দায় 4386
এম 4384
ষণের 4381
নানা 4377
ভূ@@ 4370
যত 4365
তর@@ 4360
পালিয়ে 4354
মামলার 4350
ঘু@@ 4345
লিতে 4342
বার@@ 4336
বস@@ 4325
তরাষ 4324
কয়েক 4319
ছোট 4317
৯@@ 4313
বাদী 4312
রচুর 4308
ভাই 4307
থাক@@ 4303
টর 4301
% 4292
ষণ@@ 4292
হলো 4290
রহ@@ 4285
দিচ 4282
গী 4271
লন 4268
সাফল 4267
অধি@@ 4259
বরাষ 4256
আপনাদের 4249
করেনি 4238
বাণিজ 4238
দৃষ 4233
ডিয়া 4220
ারি 4220
আছেন 4219
রেখে 4219
রাই 4217
সালে 4215
মিত 4212
রতিরক 4207
সিংহ 4207
ধরা 4206
ঠা@@ 4201
ছি@@ 4188
তিত 4187
তোমার 4178
ভাবেই 4176
আই 4171
লেও 4170
জানি 4167
গঠন 4146
লায় 4139
অভিনেতা 4137
যিনি 4132
বিল 4131
যতম 4131
গণ@@ 4128
অপেক 4127
দেবেন 4124
বাদ@@ 4122
ৎ 4121
চালাচ 4118
রভাব 4117
ষি@@ 4112
যোগাযোগ 4106
সুবিধা 4104
রমন 4102
চুক 4101
ওয়@@ 4100
যাপক 4095
চলচ 4092
বৈ@@ 4082
শনের 4079
রেক 4074
কারের 4071
জায়গায় 4070
ভু@@ 4063
য়ন 4063
২০ 4061
আগেই 4055
রুজু 4053
ির 4051
তরে 4047
কারও 4041
মক 4033
আহতদের 4031
ঘটনা@@ 4023
বাঁ@@ 4023
আফ 4020
নিত 4019
হে 4017
জানা@@ 4016
বিতর 4016
তাব 4015
জেরে 4011
থিক 4011
মণ 4011
আশ 4008
রচার 4008
আইন@@ 4007
মামলায় 4007
যাপ 4007
উঠ@@ 4005
ডু@@ 4005
চালক 4001
ষে@@ 3996
ছবি@@ 3995
আশঙ 3991
চু@@ 3990
গড়ে 3984
দূ@@ 3984
রপ 3981
হা 3979
বামী 3974
আদালতে 3963
দেরকে 3956
টান 3950
একে 3949
যাস 3943
শুভেচ 3939
ুন 3927
পাবেন 3925
হাত 3924
ষোভ 3923
বাসী 3920
অপ@@ 3913
নারী 3912
জিতে 3911
রাণ 3905
রকের 3903
থাকার 3900
পুরো 3899
গুলিকে 3892
বিমান 3892
আপনাকে 3887
আসন 3885
ঘন 3883
চিহ 3874
কঠিন 3869
কৃত 3854
অঙ 3848
লোক@@ 3847
রীদের 3844
নই 3843
পাঁচ 3842
বয়@@ 3841
গী@@ 3839
ৎ@@ 3837
কয়েকটি 3836
পুলিশকে 3833
শীঘ 3830
p@@ 3827
রেল 3826
তো 3820
ভুল 3816
এদিকে 3808
চে 3806
মহ@@ 3803
উই@@ 3801
চলের 3799
নায় 3798
জানায় 3792
ফু@@ 3789
বলেও 3789
s@@ 3785
দম 3783
ষতি 3781
ৌ@@ 3768
দিষ 3764
তৃপক 3756
পারবেন 3756
মীদের 3755
নিয়@@ 3752
বর@@ 3750
কোভিড-১৯ 3747
খারাপ 3743
সুরক 3742
বুঝতে 3738
যোগী 3737
থাকেন 3734
দপ 3728
জানতে 3725
লো@@ 3724
হের 3724
পাত 3722
ইন@@ 3719
ফিল 3718
রো 3718
যাপ@@ 3717
জানিয়ে 3715
ভয় 3714
খতিয়ে 3712
রথমে 3708
তরফে 3705
এর@@ 3701
ঞ@@ 3699
হয়তো 3698
কাজ@@ 3692
পাক 3689
ারের 3689
রেকর 3685
পাবে 3684
বাই@@ 3683
চান 3682
চেয়ে 3681
এল 3680
কায় 3675
উপলক 3674
বাহিনীর 3671
তরপ 3669
t@@ 3666
ময়নাতদন 3663
পাওয়ার 3658
ফেলে 3655
যাল@@ 3655
ৈ@@ 3650
কাঁ@@ 3647
এলাকা 3646
টাগ 3645
ভোট 3643
মস 3640
জীবনের 3634
সুন 3633
একসঙ 3628
ল-@@ 3624
২০১@@ 3623
খানের 3622
গা 3621
সকল 3620
ফোন 3618
কালে 3616
যতা 3611
তরের 3610
যোগ@@ 3607
িতে 3603
লাশ 3601
মু 3596
বোর 3594
জবাব 3593
লোক 3593
নিয়েছে 3585
ষিক 3585
যকর 3581
টো 3577
পথ@@ 3575
মনো@@ 3575
দিয়েছিলেন 3572
পুত 3571
ইংল 3553
নীতি 3553
তরা 3552
ীরা 3552
বিয়ে 3546
নন 3543
জল@@ 3538
রোহিত 3536
খাদ 3535
ানে 3532
আসবে 3520
বাধ 3519
নেওয়ার 3517
দিলেন 3512
চক 3509
রদান 3509
তথা 3508
e@@ 3505
জীবনে 3505
ারি@@ 3502
একা@@ 3501
রীষ 3500
সভা@@ 3500
শিশু@@ 3496
ষমতা 3494
দায 3493
i@@ 3491
উপরে 3486
নী 3484
মেনে 3481
রীকে 3480
সিং@@ 3480
গিয়েছিল 3476
জিবি 3474
ওয়ে@@ 3469
য়ার@@ 3468
ধীর 3467
বাসিন 3462
রণবীর 3462
সেল 3461
বাদের 3460
িল 3459
সেরা 3458
জখম 3453
ফেল@@ 3453
পেতে 3448
তিগত 3446
তমান 3444
বিরোধী 3444
মুখে 3444
g@@ 3442
যাহত 3441
ওদের 3440
যাট 3439
টাই@@ 3436
তান@@ 3435
হাইকোর 3435
থীদের 3433
বাকি 3433
আলি 3432
টস 3432
যামেরা 3429
সালের 3428
পরিচয় 3427
উপা@@ 3426
রু 3426
১২ 3426
মানুষকে 3422
শীল 3422
জুড 3421
পারবে 3419
ছবিটি 3417
পরিষেবা 3416
কৃ@@ 3413
উইকেট 3405
লী 3401
চালু 3400
বললেন 3400
সবার 3395
রূ@@ 3393
নাম@@ 3387
দার@@ 3386
যবাদ 3386
এমনকি 3385
শতাংশ 3382
রকাশিত 3378
পদে 3373
জানেন 3372
o@@ 3369
রতিক 3365
তীব 3363
সভার 3363
কিত 3362
তিদের 3361
বিধানসভা 3360
এদের 3359
সহজ 3359
য়েল 3358
পছন 3354
তই 3353
যাগ 3352
বিত 3348
বৈঠক 3345
মন@@ 3343
নিঃসন 3337
অনুযায়ী 3336
করোনা 3336
এত 3333
ভূমিকা 3332
আলাদা 3329
সী@@ 3319
সঠিক 3317
কোহলি 3313
তুল@@ 3311
কুল 3308
ধর@@ 3308
কতা 3301
১৫ 3300
d@@ 3297
চিমবঙ 3296
কারীদের 3294
যর 3291
পেট 3290
সংবাদ 3290
বিচার@@ 3286
রমাণ 3282
পেয়েছে 3277
থাপন 3271
ভিন 3269
রিত 3268
রোগ 3261
খু@@ 3259
মেয়ে@@ 3256
ঠিত 3254
নয়ন 3251
সাম@@ 3251
জনপ 3246
রাত 3245
সিবিআই 3235
ডাক 3232
য়াল 3232
বাইরে 3231
শত 3230
পাচ 3227
ছড 3225
কঠোর 3224
দেবে 3224
অতিরিক 3221
রাণ@@ 3216
দূর 3212
শনে 3198
খো@@ 3189
সরকার@@ 3184
সেবা 3183
পাশে 3181
ীকে 3181
সংগ 3178
হিত 3175
আপাতত 3173
সহযোগিতা 3172
মেগাপিক 3171
সভায় 3171
বাংলাদেশ 3167
জুন 3163
সচিব 3163
সময়ের 3160
লোকসভা 3154
মাল@@ 3153
পোর 3148
অল 3136
ছত 3136
u@@ 3134
শেষে 3134
হোক 3134
তত 3133
কষ 3128
জিত 3125
অভিনন 3121
সফল 3111
আসতে 3109
আসলে 3109
দির 3108
যুব@@ 3102
ায 3101
শিশু 3099
যালেঞ 3097
ফর 3093
নিষ 3092
এছাড 3088
যাক@@ 3088
&#91; 3086
এছাড়া 3085
তাঁ@@ 3085
এফ@@ 3084
নেয় 3082
তারিত 3077
রিন 3077
যরা 3071
ধির 3069
রশংসা 3064
তভাবে 3063
যিশু 3059
মূলক 3057
m@@ 3056
&#93; 3054
বেও 3054
যেক 3054
সৌ@@ 3052
টকে 3050
আয 3048
কাউকে 3044
রাখার 3042
ছিলাম 3037
থনা 3033
ধাক 3032
নজর 3026
আস 3020
উ 3019
করলে 3018
য়েছিলেন 3018
পূ@@ 3016
সফ@@ 3016
তিন@@ 3015
যাখ 3015
কেমন 3014
কড 3013
পারেনি 3013
লিখিত 3012
জোর 3008
সমাধান 3006
... 3005
জরুরি 3003
লাহর 3003
বারের 3001
লস 3001
ঘরে 2999
বেড 2998
য়েছেন 2998
বিচার 2997
থলেই 2996
দাঁ@@ 2995
ছে@@ 2993
য়াম 2992
তিশালী 2990
সাবেক 2990
টিক 2987
মাঝে 2985
শাহরুখ 2983
ঞা 2982
কেবল 2980
ক-@@ 2970
তোলার 2969
১৯ 2966
নগ@@ 2962
হই@@ 2961
আজ@@ 2960
সেটি 2960
গণ 2951
ছেলে@@ 2947
টিও 2942
সংশ 2939
খুশি 2936
নেমে 2935
চা 2931
চাল@@ 2930
থাকছে 2930
জাতীয 2929
০ 2926
মীরা 2918
লিষ 2916
অধিকার 2911
আবে@@ 2911
লোকেদের 2909
ছু@@ 2906
অভিযোগের 2903
করো 2899
জানাই 2899
বান@@ 2887
ছাড়াও 2885
ওয়া 2882
শব 2876
পায় 2874
ইংরেজি 2871
ঞা@@ 2871
আহ 2869
ভেঙে 2868
সাম 2863
হয়েছিলেন 2862
শী 2858
নতি 2855
গুলি@@ 2854
এফ 2853
দী 2853
-এ 2847
ভালো@@ 2847
টেন 2844
ঈ@@ 2840
পাল@@ 2836
সিস 2835
মুখ@@ 2834
রাস@@ 2834
কত 2833
বছরের 2833
b@@ 2832
বপ 2831
ঞতা 2826
াতে 2824
ধানে 2818
সিন 2817
জমা 2816
সভা 2816
অনুমোদন 2815
অংশগ 2814
১১ 2814
অভ 2812
কমিটি 2812
গেই 2812
নয়@@ 2811
কস 2807
অপরা@@ 2805
মৃ@@ 2805
তাও 2802
অন@@ 2801
চের 2801
মাণ 2799
রামের 2799
খের 2798
ফাঁ@@ 2798
রিয়@@ 2793
অভিজ 2791
আসা 2791
লাস 2791
১৬ 2789
ূ@@ 2784
‍ 2780
ওর 2777
আট@@ 2774
যাদের 2774
যায়@@ 2774
সরকারকে 2774
জানিয 2773
পরিচালক 2773
পৌঁছ@@ 2772
হাজির 2767
ইঞ 2765
নু@@ 2762
বিবেচনা 2762
চায় 2760
পাঞ 2760
বাড়@@ 2760
রাহ@@ 2758
গবেষণা 2757
উদাহরণ 2756
কিং@@ 2751
বিন 2748
ওরা 2746
পবিত 2746
নগর 2745
উঠে 2743
খুন 2740
মানে 2738
জোট 2737
চি 2736
লাগ@@ 2735
গেলে 2732
খেল@@ 2725
এলাকার 2723
তাম 2723
মানের 2722
রচেষ 2722
সী 2722
তৃতীয় 2721
যাব@@ 2721
রতিটি 2721
গভীর 2719
দুজন 2719
য়ায় 2718
পরের 2717
লকে 2714
পদ@@ 2713
বহু@@ 2706
এন 2705
মোট 2703
বাড়ি 2701
মীরের 2695
য়েছি 2694
ানির 2693
জির 2692
টিভ 2690
কৃষ 2689
ভূমিকায় 2689
যার@@ 2689
রেই 2688
রশাসন 2686
তুত 2685
ফাই@@ 2685
বজায় 2683
হবেন 2682
১৩ 2680
আধ 2675
নিচ 2675
যাকাউন 2675
েছিলাম 2673
দেরও 2671
মকে 2671
ষম 2670
আনা 2669
আপনারা 2666
েও 2663
ড়ি 2663
আসছে 2660
এজন 2660
কী@@ 2659
পেয 2657
গোষ 2656
রেস@@ 2656
যাশনাল 2655
কমি@@ 2653
বুঝ@@ 2653
মহত 2650
আন@@ 2646
আসার 2645
পড়েছে 2645
ছেড়ে 2643
মূ@@ 2642
ইমরান 2639
জয়@@ 2635
১৪ 2634
বাসের 2633
রশিক 2630
লোকেরা 2629
সাংসদ 2629
থানের 2628
রিয়াঙ 2628
জনে 2626
নাই@@ 2626
গুলোতে 2618
বো 2616
টিম 2615
ভূত 2613
দুষ 2606
ননি 2606
রয় 2606
বলি@@ 2605
তেজনা 2601
বাচনের 2601
সিনেমা 2601
অনুমতি 2600
তেল 2600
াল 2599
জীবন@@ 2598
দেখুন 2598
শি 2597
হামলা 2593
এছাড়াও 2591
দৃশ 2591
তুতি 2590
যাচে 2589
তোমার 2586
ভি 2584
ফার 2579
ঞাসাবাদ 2578
খুঁজে 2577
বলিউডের 2575
আদালতের 2574
ই-@@ 2574
চিকিৎসার 2574
দেয়া 2574
লোকজন 2573
কয 2571
হর 2570
বরে 2569
রেল@@ 2569
০০ 2568
h@@ 2564
জড়িত 2564
যথেষ 2564
যুৎ 2564
করো 2563
জেন 2562
চো@@ 2561
ভব@@ 2561
লিক 2560
c@@ 2559
জিত@@ 2558
গৌ@@ 2555
কট 2553
মো@@ 2552
কোন 2550
রিয়া@@ 2548
রেখ@@ 2547
খাবার 2546
মহম 2546
যুতে 2544
বই@@ 2543
ঠি@@ 2542
ডোনাল 2542
তেমন 2539
নাল 2539
নীতি@@ 2534
পেক 2534
বলি 2534
হীন 2534
ঠানের 2533
যদিকে 2531
থান@@ 2529
একমাত 2527
থানার 2527
হামলায় 2526
মির 2525
ষী 2525
সিসিটিভি 2525
উঠেছে 2524
বোচ 2523
বং@@ 2522
পরিমাণ 2520
ষায় 2520
থিতির 2518
ঘো@@ 2517
বাড়িতে 2514
করেননি 2513
চালিয়ে 2507
আপ 2506
যাঁ 2504
িক 2502
খোঁজ 2499
থে 2498
লিন 2498
ষমা 2496
উড 2492
তায 2491
তোমাদের 2491
রায়@@ 2491
নটি 2489
ভাল@@ 2488
রতিদিন 2486
কয়েক@@ 2484
বরূপ 2484
পৃষ 2483
কয়েকজন 2482
মোবাইল 2479
উৎ@@ 2476
এল@@ 2476
থাকবেন 2476
পরিচালনা 2476
কৃষকদের 2475
রণের 2474
৫০ 2474
লম 2473
আঘাত 2472
হয়@@ 2469
চর 2468
একটু 2464
ণা 2462
কোথায় 2461
যকে 2461
সেনা@@ 2461
পরিষ 2460
ষয় 2460
রেও 2457
তিনজন 2450
তারকা 2448
দেব 2448
মাসে 2448
যানে@@ 2448
কারা 2446
নস 2446
টুইট 2443
হাল 2441
শার 2439
সময়@@ 2439
পরিশ 2438
কান@@ 2435
রমে 2435
সামরিক 2435
আদিত 2432
নিজ 2432
বাল@@ 2429
কথা@@ 2427
রাথমিক 2425
রির 2424
দর@@ 2422
যব@@ 2421
সিনেমায় 2421
ড়ি@@ 2419
সড 2414
টাকার 2413
নিজেকে 2411
খুঁ@@ 2409
জয 2408
বিজেপি@@ 2408
সূচনা 2407
কিং 2406
বিমান@@ 2406
যাব 2404
রব@@ 2403
জেনারেল 2400
কৃষি 2399
নাগরিকত 2398
সকলের 2395
রীলঙ 2394
ওঠে 2390
সান 2390
করত 2388
গন 2388
তালিকায় 2388
শস 2388
ারা 2388
জেনে 2385
তোলা 2380
আয়@@ 2379
জীব@@ 2379
মানুষ@@ 2377
চাপ 2372
বী 2372
যিই 2372
লিয 2371
পিছনে 2370
বাচিত 2370
১০@@ 2370
আতঙ 2369
থমন 2368
চীন 2366
গরম 2365
যাদব 2364
কন@@ 2363
রেম 2363
িয 2362
সালমান 2361
মুখোমুখি 2359
সংগঠন 2358
শারীরিক 2357
ছড়িয়ে 2356
যও 2355
সবাইকে 2355
কাউন 2353
ডিয 2353
জাব 2351
গুলোকে 2350
৩০ 2349
বাংলাদেশের 2347
আসেন 2345
ানে@@ 2345
তুলতে 2344
য়েছে 2344
২০০@@ 2342
অভিযোগে 2341
দুজনের 2340
নিউজিল 2339
২৪ 2338
মু-কাশ 2337
সফরে 2337
দীপিকা 2333
শোনা 2333
আইনের 2331
তোমরা 2331
ডার@@ 2330
দিন@@ 2330
হান 2329
মঞ 2328
মো 2328
নিজে@@ 2327
পাই@@ 2324
ভারত@@ 2321
রতিবে@@ 2321
শুন@@ 2317
েল 2317
ভাষায় 2316
লেখা 2316
য়েছিলাম 2316
মুসলিম 2315
সদর 2315
আনুষ 2313
বীর 2313
অতঃপর 2312
লঙ 2312
এশি@@ 2311
লিখেছেন 2311
অমিতাভ 2310
ধারণ 2309
কৃতি 2307
খুনের 2307
,@@ 2303
টেম 2303
রচার@@ 2303
কখনো 2301
ভারত-@@ 2300
দলে 2299
নত 2298
কারি@@ 2296
কৃতজ 2294
ঘিরে 2291
নাও 2290
কিভাবে 2287
দীপ 2284
সুপার 2283
থীরা 2281
য়েও 2281
খেলা 2280
তীর 2279
চলবে 2277
টিং@@ 2276
পেশ 2275
মর@@ 2275
হতো 2275
য়েই 2274
পের@@ 2271
গম 2269
পরিবে@@ 2268
শিব@@ 2267
আলা@@ 2266
দিয়েছিল 2257
মাকে 2256
অথচ 2254
বাতিল 2252
মুখপাত 2251
ভাব 2250
সীমান 2250
হাসপাতাল 2250
ড়িয়ে 2249
আদ@@ 2248
করতেন 2248
পরিচালিত 2243
কথায় 2241
কেরা 2237
গাড়ি 2237
রয়োজনীয় 2237
সেই@@ 2237
কোম 2236
e 2235
ধী@@ 2234
রিকেটার 2233
দত 2232
গেছেন 2231
যি 2231
আব@@ 2227
শিখ@@ 2226
ুর 2222
বাভাবিক 2220
পাওয 2219
বয়স 2215
n@@ 2214
নয়াদিল 2214
াদিল 2212
বিয়ের 2210
চেন 2206
যয় 2205
রূপ 2204
পী@@ 2202
নায 2201
তানকে 2198
সেখান 2197
বোধ 2193
গণতন 2192
গিয 2192
হলেও 2192
আশ@@ 2191
ভী@@ 2191
রাজনাথ 2189
থাপ@@ 2185
রব 2184
ষিতে 2184
খণ 2183
যুবক 2183
বলছে 2182
ধিত 2180
ছন 2179
হৃদ@@ 2178
পরিচিত 2176
রিকা 2176
ছো@@ 2175
রো@@ 2175
জুড়ে 2173
বেসরকারি 2171
যাপার 2171
অতএব 2170
থনৈতিক 2170
উৎপা@@ 2167
বিষয়টা 2167
আরে@@ 2166
কোথাও 2165
রভু 2165
লিখ@@ 2164
ডো@@ 2163
বরং 2162
সূ@@ 2162
তীয়@@ 2161
সংরক 2161
হওয 2159
চারটি 2158
করেছিলাম 2157
পালনকর 2156
পুলিশে 2156
আমন 2154
নিয়েছেন 2153
পরিবেশ 2151
পুনর 2149
থে@@ 2146
বিমানবন 2146
যম 2145
আসা@@ 2143
মুদ 2141
l@@ 2140
ঘর 2140
থায 2140
তনের 2139
বাজ@@ 2139
ঙ@@ 2134
রমণের 2133
কারীরা 2131
দারুণ 2129
এগুলো 2128
বুদ 2126
ভারতকে 2126
যোগের 2126
কলেজ 2125
ফি 2121
ণি@@ 2120
চরম 2119
ঋ@@ 2117
ারে 2117
আগ@@ 2115
তানে 2113
ফোনে 2113
হাই@@ 2112
এব@@ 2107
হিং@@ 2106
১৭ 2106
কারে 2105
ধতি 2105
ময় 2105
চয়ই 2104
খে 2102
কামনা 2100
সামগ 2098
কল@@ 2095
ভর@@ 2095
রছাত 2094
a 2093
টিং 2092
শুধুমাত 2087
মমতা 2084
যালয় 2084
ভূমি@@ 2083
সেনার 2083
ডঃ 2082
বাচ 2080
পুর@@ 2076
রাখে 2076
াই@@ 2075
বাধীন 2073
ডিয়ান 2069
থক 2066
অসুস 2065
মামলা@@ 2065
ডেস 2062
পদের 2062
লান 2062
চতুর 2061
টুইটারে 2061
রাখুন 2060
ফির@@ 2058
তা-@@ 2056
বাছাই 2055
বোন 2055
ভাঙ@@ 2055
কালীন 2054
কিশো@@ 2054
পুন@@ 2054
সুশান 2054
ধারণা 2050
মরণ 2050
খারিজ 2049
ঠান@@ 2049
রেলিয়া 2049
বকে 2048
অনন 2047
দণ 2046
পুরুষ 2046
মিশ 2046
ষণে 2046
১৮ 2046
২৫ 2046
দুই@@ 2045
বেই 2045
ষতিগ 2045
গান@@ 2043
নাকি 2043
তালিকা 2042
পেয়েছেন 2041
বাধা 2040
ধো@@ 2039
মৌ@@ 2039
রায়ই 2039
সিনেমার 2039
থের 2038
জানে 2036
ঞান@@ 2036
ছেড 2034
পলাতক 2030
রিসভার 2030
চলতে 2028
কুল@@ 2026
আহ@@ 2023
রবেশ 2023
লাগে 2023
চয় 2022
টিয়ে 2021
দেশটির 2017
রাজি 2017
কড়া 2016
সমান 2016
দেখি@@ 2015
একবার 2014
বাইবেলের 2013
ন-@@ 2010
শিবসেনা 2010
য়ক 2010
একেবারে 2008
জানালেন 2007
লাইন 2007
পরিচাল@@ 2005
বাগত 2003
এরকম 2002
রতিবাদ 2002
সেখানেই 2002
কাজনক 2000
োজন 2000
এভাবে 1999
তারের 1998
মহিলাদের 1997
ইল 1995
গির 1991
২২ 1991
জানাতে 1990
আয়োজন 1988
পৃথিবীর 1986
মাই@@ 1986
যাকে 1985
লিত 1985
শুরু@@ 1985
সরাসরি 1985
রকৃত 1984
ওয়েব@@ 1981
লাল 1980
ধীন 1979
বদলে 1979
বেঞ 1979
মীয় 1978
য়েন 1978
ওয়েস 1977
পূরণ 1977
আমা@@ 1974
এরপরই 1974
রায়ে@@ 1973
জানাচ 1972
যাণ 1972
কও 1969
বোধন 1968
বু 1967
থির 1966
রভুর 1964
ভেন 1963
মেলনে 1962
রূপে 1962
রীরা 1961
গুজরা@@ 1959
বলার 1957
তালি@@ 1956
রশাসনের 1956
চালানো 1955
যালয 1955
দুঃখ@@ 1954
রাজনীতি 1954
কটি 1952
বাধীনতা 1952
ডিগ 1951
উৎপাদন 1949
আরো@@ 1948
কমিটির 1948
য়েছিল 1948
শহরের 1946
রমি@@ 1945
শৃঙ 1945
আফগানিস 1944
দাঁড 1943
বিভাগের 1943
সফর 1943
আমাদেরকে 1941
উভ@@ 1941
অনুপ 1940
এমনই 1940
উভয় 1938
যাড@@ 1937
বাজারে 1936
অজ 1935
দম@@ 1935
পৃথিবীতে 1934
বাবা@@ 1933
আটকে 1932
রবল 1931
ইর@@ 1930
কেল 1929
অনুরোধ 1928
আম 1928
কোনো 1928
থিতিতে 1926
অনেকে 1925
ারও 1923
যবসা@@ 1922
জাতির 1920
পুরু@@ 1920
২১ 1920
আলো@@ 1919
কই 1919
গাড়ি@@ 1916
জড 1915
তানি 1915
পৌ@@ 1915
কমিশন 1914
রয়া@@ 1913
বাহ@@ 1912
বির 1911
বিহারের 1911
মিডি@@ 1910
সকলেই 1910
গোল 1909
করা@@ 1908
নিস 1906
বছরে 1906
রিকার 1904
কিছুটা 1901
সামান 1901
জয়ী 1900
বিচ 1900
সেগুলো 1900
ইসলা@@ 1898
ঝা@@ 1898
সিরিজ 1897
সেজন 1897
বিপুল 1894
মাল 1894
যাটসম 1894
র-@@ 1894
ar@@ 1893
বলছেন 1893
সরবরাহ 1893
যবহৃত 1892
রযো@@ 1892
ৃ@@ 1892
ধরণের 1886
২০২০ 1886
জায়গা 1884
নাথ 1879
কলে@@ 1874
গিয়েছিলেন 1874
আইনি 1873
নিম 1873
ইব 1872
নেওয 1871
উনি 1870
পরিদর 1869
আগের 1868
ীন 1868
বংস 1867
সমৃদ 1864
জিন 1863
রতিযোগি@@ 1863
গাঁ@@ 1862
চিকিৎস@@ 1862
কিয়ে 1861
দেখছে 1861
খরচ 1860
চিঠি 1860
মহিলার 1859
লতা 1859
উপযুক 1857
খোঁজে 1857
জগ@@ 1857
নেয়া 1856
দনের 1855
টেলি@@ 1854
শাহ@@ 1854
সড়ক 1853
এইচ@@ 1851
মসূচি 1851
দেখা@@ 1850
জী@@ 1847
অনেকেই 1846
চেয়ারম 1846
বায 1846
পাদক 1844
মাসের 1844
কাণ 1843
পুরে 1843
রসূ@@ 1843
চলাচল 1842
শিকার 1842
বিশাল 1841
মিন 1839
শহরে 1839
মনের 1837
অসম 1836
খি@@ 1835
রেরিত 1835
লেখ@@ 1835
-তে 1834
গড়@@ 1834
দূরে 1834
আব 1831
রাতে 1830
তিনিই 1828
মোদির 1828
বিপক 1826
রটি 1826
মেট 1825
এরই 1824
ফাইনালে 1824
মত@@ 1824
কুর 1823
দিবস 1822
বিহার 1822
করেই 1819
কিংবা 1817
রহণের 1810
মাথায় 1809
করে@@ 1808
নিজেই 1808
যেভাবে 1808
বাদে 1807
ভাইরাস 1805
এত@@ 1804
পরিবার@@ 1804
এরা 1803
যোগে 1802
নাক 1799
বাহী 1799
এলাকা@@ 1798
ঠা 1797
আছি 1796
আসনে 1791
নীয় 1791
বৃহত 1791
মানসিক 1790
কারণেই 1789
যুবকের 1789
সবসময় 1789
রতিবেদন 1788
ফল@@ 1786
বিধায়ক 1786
যবহার@@ 1786
রেট 1785
আল@@ 1783
ভিডিও@@ 1782
d 1781
টায় 1781
রোল 1780
ীয 1779
যায়ে 1777
সহায 1777
বিপর 1774
মোদীকে 1774
ড়াতে 1774
রদের 1773
পাঠায় 1772
শুভ 1771
ইউ 1770
থায়ী 1770
ওঠ@@ 1769
টাকে 1768
শঙ 1768
মোতায়েন 1765
বেছে 1763
যালয়ের 1763
সকে 1763
আসামি 1762
রবি@@ 1761
দানের 1759
দেব@@ 1759
ফাইল 1758
লড়াই 1754
এখ@@ 1749
সাং@@ 1749
জর 1747
নিউ@@ 1747
সরিয়ে 1747
এমনকী 1745
মঙ 1745
এফআইআর 1743
মোকাবিলা 1743
জো 1742
আমেরিকা 1739
ধীরে 1739
উর 1738
গুপ 1737
বিশিষ 1737
তও 1736
সক@@ 1733
কলকাতা 1731
মতে 1731
দায়@@ 1729
দেহে 1728
জার@@ 1727
বত 1727
পুরের 1726
দায়ী 1725
রতিমন 1724
য়ি@@ 1724
মালি@@ 1723
রদেশে 1723
-কে 1722
ফোর 1722
যাচের 1722
অনুসরণ 1721
খুল@@ 1721
ডিজেলের 1721
ধিকার 1719
পেছনে 1719
সৈ@@ 1717
টল 1715
ষামন 1714
বিষয়ক 1713
রিয়ার 1713
সেটাই 1713
কাকে 1711
ূর 1711
মামলাটি 1708
বোঝ@@ 1707
থাৎ 1705
পেন 1705
ভাষা 1705
সাহ@@ 1705
দাস 1704
ানার 1704
কনফারেন 1702
f@@ 1701
মায় 1701
১০০ 1700
w@@ 1698
বসে 1698
ইনিং@@ 1697
অভিযোগ@@ 1695
মনমোহন 1695
অনেক@@ 1694
ভাষণ 1694
গিয়েছেন 1692
টিন 1692
ঠার 1690
সাত 1690
রেলিয়ার 1689
ঘটনায 1688
নৌ@@ 1688
মাইক 1688
যাটরিনা 1688
চিকিত 1687
পির 1687
আনতে 1686
গার@@ 1685
কিনা 1684
ধোনি 1684
যারি@@ 1684
ধারা 1682
বৃত 1680
ানু@@ 1680
রজ 1679
আইসি@@ 1678
পারস 1678
চালা@@ 1677
বাই 1677
মীরে 1675
ষতি@@ 1675
শুনে 1673
ণীর 1670
পারেননি 1670
আমির 1669
ত-@@ 1669
যৌ@@ 1669
রতিশ 1668
অবাক 1667
কৃষক 1666
মিডিয়া 1666
যাই 1666
k@@ 1665
ওঁ@@ 1665
কমে 1664
টিস 1662
সহায়তা 1661
িয়েছে 1660
আইপি@@ 1658
কেট 1658
চৌ@@ 1658
পদত 1657
ফলাফল 1657
তিও 1656
হাস@@ 1656
যাশ@@ 1655
ণী@@ 1654
পৌল 1654
মসংস 1654
যাও 1653
জনই 1652
পড়তে 1651
য়র 1651
আওতায় 1649
ইউনি@@ 1649
নো 1649
অবিশ 1648
রেলি@@ 1648
ছিন 1646
কটা 1645
রাজা 1645
মোটর@@ 1643
নিজস 1642
এপ 1641
থানা 1641
রাউন 1641
ষোভ@@ 1641
t 1640
… 1640
ফোনের 1637
শাল 1637
ঐ 1635
সমঝো@@ 1635
গু 1632
ণী 1631
যাট@@ 1631
তাপমাত 1630
উজ 1628
নির@@ 1628
যয়ন 1628
রেড 1628
লাগা@@ 1627
ংশ 1626
পাশের 1625
সাংস 1624
দুটো 1622
নদের 1621
নাগরিক 1621
ভারী 1620
এসময় 1619
কৃতিক 1619
বরা@@ 1619
বিধান@@ 1618
করু@@ 1617
গেও 1617
আনু@@ 1615
পারব 1615
রতা 1615
নিউ 1614
বদ@@ 1614
মহেন 1613
নতা 1611
বিএস@@ 1609
তো@@ 1608
যাবেন 1607
নিয়ম 1605
বাসা 1605
ধরেই 1604
বেঙ 1603
থি 1602
নষ 1602
ভোগ 1602
মৃতের 1602
কুমার@@ 1601
নেতারা 1600
নেবে 1600
ঢ@@ 1599
ভিডিওটি 1599
রতিনিধি@@ 1599
সংসদে 1598
যো@@ 1597
-প 1596
আলোচনার 1596
নামের 1596
পুরোপুরি 1596
যীশু 1596
মেডিক 1595
হারিয়ে 1595
ৃত 1595
খান@@ 1593
পরও 1593
তৈ@@ 1592
যাং@@ 1592
দেয 1591
ণনা 1590
কক 1589
পাঠিয়েছে 1588
ডেন 1587
নিহতদের 1587
ইউরো@@ 1586
আনে 1584
জাতি 1584
কপ 1582
&#124; 1581
উপভোগ 1581
গুণ 1581
তাহ@@ 1581
শিষ 1581
সমাজ@@ 1581
সির 1581
ইতিহাস 1578
বেড়ে 1578
যৌথ 1578
ষেপ@@ 1578
শহ@@ 1577
মানব@@ 1576
বিদেশ 1575
যিক 1574
নিয়মিত 1573
দৌ@@ 1572
অফিসে 1571
রমিক 1571
লায 1571
অপারে@@ 1570
তৎ@@ 1570
রাচীন 1570
পল 1569
আলিয়া 1568
দেশকে 1568
বিদেশমন 1568
ভোটের 1568
তাড 1567
সদ@@ 1566
টোরেজ 1564
নীতির 1564
বেঁচে 1564
রসাদ 1564
হাঁ@@ 1563
কবে 1561
দরে 1561
সকলকে 1561
সেক 1561
অরবিন 1559
চিম 1557
জেলায় 1557
টিটিউট 1557
চলেছেন 1556
ফুটেজ 1555
বিবে@@ 1554
সহযোগিতার 1554
তৃণমূল 1553
অতি@@ 1552
ঠি 1551
সাংবাদিক 1551
অভিষেক 1550
বো@@ 1548
যাচ@@ 1548
চলতি 1546
নয়নের 1546
ষতা 1546
সমূহ 1545
পরিবারে 1544
লু 1544
টান@@ 1543
তানদের 1542
কোনও 1541
হারা@@ 1541
আঁ@@ 1540
এমনটাই 1540
থিতি@@ 1540
যামে@@ 1540
সমাজের 1540
অনিল 1539
ইলে@@ 1539
ঘনিষ 1539
ধারিত 1538
বিপাক 1538
বিষ@@ 1538
অফিসার 1537
অম@@ 1537
আমি@@ 1537
পানি@@ 1537
২০১৯ 1537
কোবিন 1536
জনগণের 1536
পরিচর 1535
গোয়েন 1533
ভোট@@ 1533
অনুসারে 1532
জান 1532
সিক 1531
অনুগ 1530
মথি 1530
মসূচির 1530
যায়ের 1530
সংযোগ 1530
চলা@@ 1529
মেশ 1529
দাও 1528
বইয়ের 1528
রিল 1527
লিং 1527
গেলেন 1526
বিজয় 1526
শতা@@ 1526
দেহ@@ 1525
বলেই 1525
অপরাধ 1524
বাল 1523
আসুন 1522
ধুয়ে 1522
নিজে 1522
পরস 1522
গাঁধী 1521
ভোটে 1520
একেবারেই 1519
কেউই 1519
ঞেস 1519
টারে 1518
পরিণত 1514
মোহাম 1514
r 1513
ফার@@ 1513
গৃহ@@ 1512
তোমাকে 1511
দিয়েছি 1511
ভয়@@ 1511
শাসিত 1511
পতির 1509
সুযোগ@@ 1507
কালের 1506
দন@@ 1505
বলিউডে 1505
ভবত 1505
আগেও 1503
জানার 1503
সদ 1503
হাই 1501
জানি@@ 1500
সাইটে 1498
একথা 1497
গুঁ@@ 1497
সমুদ 1497
মাঝ@@ 1496
রতিরোধ 1496
লেন@@ 1494
াম 1494
বাড়ছে 1493
ানো 1493
কিলোমিটার 1492
যে-@@ 1492
খন 1489
জগতের 1489
থেকেও 1489
ভো@@ 1489
রীতি@@ 1489
বিরোধিতা 1488
ানেও 1488
বাসীদের 1487
চাকরি 1486
পাধ 1485
েনি 1485
আশীর 1484
দোল@@ 1483
দশ 1482
নেও 1482
আহমেদ 1481
তবুও 1481
সিনেমা@@ 1480
২৮ 1480
তীতে 1479
দেখার 1478
তটা 1477
য়নি 1477
টুর 1476
ষি 1476
পরিবারকে 1475
বামী@@ 1475
হই 1475
তন@@ 1474
নমুনা 1473
কানা@@ 1471
মায়ের 1471
যবহারের 1471
কাপুরের 1470
ওয়াল 1469
রাল 1469
r@@ 1467
কোনো@@ 1467
দাবি@@ 1467
নিষেধাজ 1467
লেখযোগ 1467
কুলের 1466
ফিরিয়ে 1466
আদেশ 1465
আদর 1464
চাঞ 1464
অসংখ 1463
রেষ 1463
মোদী@@ 1462
শোক 1462
হামলা@@ 1462
খেলোয়া@@ 1461
পাড 1461
বিবৃতি 1461
কাটা@@ 1460
খোঁ@@ 1459
মাতে 1459
ধিক 1458
ময 1458
বেরিয়ে 1457
রসার@@ 1457
ছুটে 1456
বৃ@@ 1456
করো@@ 1455
কাল@@ 1454
জামি@@ 1454
নিষিদ 1454
করণের 1453
চিনের 1453
টারনেট 1453
বারা@@ 1453
এসেছেন 1452
৪০ 1452
পুস 1450
মাং@@ 1450
মেয 1450
মালিক 1449
সাধার@@ 1449
আদি@@ 1448
জনেই 1448
সংযুক 1447
যথা 1446
সীমা 1446
-সহ 1445
ঐতিহাসিক 1445
খেলার 1445
উপলব 1444
নর 1444
ঋণ 1443
পাশ 1443
শতাব 1443
হারে 1443
য়ী 1443
মেডিকেল 1442
ডিজিটাল 1441
থাও 1441
মূর 1441
বাসে 1440
লটি 1440
চিকিৎসকরা 1439
বজন@@ 1439
মূলত 1438
যেহেতু 1436
ডিং 1435
পরিত 1433
বাণী 1433
যাপী 1433
দমকল 1431
বলেছে 1431
বাংলা 1431
শনাক 1431
কুলে 1430
ছেদ 1430
যাঁরা 1430
আমেরিকার 1429
গীত 1427
রেরণ 1427
অসাধারণ 1426
কতার 1426
জনে@@ 1426
পতি 1426
ষমতা@@ 1426
কাজকর 1423
ডিরেক 1423
হল@@ 1423
আচরণ 1422
কথাও 1422
কমিশনের 1421
চুরি 1421
তপ 1421
বিশেষজ 1420
বাবার 1419
ারা@@ 1419
উৎসর 1418
পাস 1418
মেহ@@ 1418
অধিবে@@ 1417
অবিলম 1417
কেটে 1417
কোচ 1417
ঞপ 1417
নাগা@@ 1417
মদের 1417
মেক 1417
পতি@@ 1416
যোহন 1416
কো 1415
যবসা 1415
হাসপাতালের 1415
গল@@ 1414
চনা 1414
রথম@@ 1414
পরিষে@@ 1413
পুষ 1413
বিজেপিকে 1413
কারণ@@ 1412
বড়@@ 1412
মিল@@ 1410
আপত 1409
রামনাথ 1409
কোভিড 1408
নেতাদের 1408
টীয় 1407
নামেন 1407
ভাষা@@ 1407
মারাত 1407
সমগ 1406
উপ-@@ 1405
ষুদ 1405
হুমকি 1405
বিপরীতে 1404
বাংলা@@ 1403
আধিকারিক 1402
দারা 1402
কেশ 1401
জলের 1401
যপাল 1401
জিনিস 1400
নারা@@ 1400
জস 1399
গৃ@@ 1398
চিকিৎসাধীন 1398
ধান@@ 1398
আইনে 1397
কিছুদিন 1397
জয়ের 1397
থাকুন 1396
ওড 1395
পী 1395
সাত@@ 1395
ডন 1394
বিএন@@ 1394
যিশুর 1394
শেষ@@ 1394
গো@@ 1393
তাহে 1393
দেখানো 1393
বিগ 1393
নেটওয়ার 1392
পররাষ 1391
ষম@@ 1390
মহি@@ 1388
টও 1386
ময়@@ 1386
২৩ 1386
ঢ 1385
খেলা@@ 1384
দরিদ 1384
বাভা@@ 1384
রশং@@ 1384
পারিবারিক 1383
অপ 1382
এলে 1382
টারের 1382
দশ@@ 1382
বয 1382
মেলেনি 1382
রেখেছে 1382
আশা@@ 1380
মচার@@ 1380
শিগগিরই 1379
জনতা 1378
পালের 1378
ষদের 1378
রঞ 1377
রেশন 1377
রথমবার 1375
পাই 1374
সকলে 1374
ইস@@ 1373
রভাবে 1373
দেয়নি 1372
বিভাগ 1372
নান@@ 1371
হী 1371
পৃথক 1370
an@@ 1369
চূড 1369
বাজার 1369
রহণ@@ 1369
ভাইরাসের 1368
লেখেন 1368
আধিকারিকরা 1367
দুল 1367
মহাস@@ 1367
মৃতদেহ 1367
ঘের 1366
রবন 1366
ভিটামিন 1365
গঙ 1364
কারা@@ 1363
শিশুদের 1363
বেড়@@ 1362
যাঁ@@ 1362
i 1361
সমবেদনা 1361
রতিবাদে 1360
সরে 1360
সলমন 1360
জনকেই 1359
পরিমাণে 1358
v@@ 1357
_ 1356
বিজেপিতে 1356
অনুসন 1355
টাও 1355
রিকে@@ 1355
উঠতে 1354
কোনও@@ 1354
সেনাবাহিনীর 1354
ধারায় 1353
বাসীর 1353
হায়দরা@@ 1353
বন@@ 1352
বারই 1352
সমন 1351
রবা@@ 1350
সিত 1350
লও 1349
চায 1348
নাকে 1348
ফেলা 1347
করের 1346
বাবা-@@ 1346
ডিয়ার 1345
নিদর 1345
শুনানি 1345
তিস 1344
ধনী 1344
বিরো@@ 1344
ঐতিহ 1342
কাট@@ 1342
ভিস 1341
ভীষণ 1341
আঞ 1340
কোন@@ 1340
জেলা@@ 1340
উপায় 1339
কবার 1339
বাড়ির 1339
তরা@@ 1338
দিনই 1338
কিছুক 1337
গঞ 1337
তখ@@ 1337
ভূমি 1337
ষমতায় 1336
খোলা 1335
সাব@@ 1335
কাই@@ 1334
ঘদিন 1334
েছি@@ 1334
০টি 1334
ইতিবাচক 1333
উদ@@ 1331
দানে 1331
যানি@@ 1331
সিরিজের 1331
সূর 1331
ড়িয়েছে 1330
m 1329
আচ@@ 1329
পাবলি@@ 1329
চারজন 1328
জাতি@@ 1328
রোধ 1328
কূ@@ 1327
তামিল 1326
গতিতে 1325
শত@@ 1325
সকালে 1325
েছ@@ 1325
কট@@ 1324
জাম 1324
মনোভাব 1324
সাগ@@ 1324
তরু@@ 1323
যবান 1323
তাই@@ 1322
৭০ 1322
শন@@ 1321
যেটা 1320
নাস 1319
বিষ 1319
মিলি@@ 1319
যূ@@ 1318
খলা 1317
লো 1317
পেল 1316
রহী 1316
পেশা@@ 1312
যালে@@ 1312
রমাণিত 1312
ঠী 1311
কারো 1310
চীনের 1310
ডিজ 1310
ইঙ 1309
কৌশ@@ 1308
ধৃতদের 1308
অভিভাব@@ 1307
এঁ@@ 1307
মহান 1307
co@@ 1306
অধিকাংশ 1306
চম 1306
টিই 1305
সেইসঙ 1305
আগামী@@ 1301
চূড়ান 1301
জেলে 1300
তাহা@@ 1300
হওয়ায় 1300
করিনি 1299
গতি 1297
যৌন 1297
যৎ 1297
থানীয়@@ 1296
আমেরি@@ 1295
উৎসাহ 1295
কঙ 1295
রাজীব 1295
সচে@@ 1295
য়ারি 1295
দোষী 1294
লাখ 1294
কিট 1293
নিযুক 1293
কত@@ 1291
চাঁ@@ 1291
দৃঢ় 1291
আবহাওয়া 1290
যেও 1290
হননি 1290
জক 1288
দোষ 1288
রধান@@ 1288
ধরতে 1286
বব 1286
বৈঠকের 1286
শপথ 1286
বহি@@ 1285
ডল 1284
পারছি 1284
বাপ 1284
রভা@@ 1284
ঞাত 1283
রিতে 1283
চলিক 1282
টানা 1282
মাণ@@ 1282
যথা@@ 1279
নান 1278
বাড়বে 1277
সৌদি 1277
অভাব 1276
তঃ@@ 1276
সিবিআই@@ 1276
অপর 1275
পড়া 1275
এনডি@@ 1273
নেমেছে 1273
ড়ায় 1273
পেরে 1272
রাখেন 1272
ওষুধ 1271
গুণ@@ 1271
সময়ই 1270
ওকে 1269
সংগঠ@@ 1269
গঠনের 1268
বিবৃতিতে 1267
যাপারটা 1267
অনুভব 1266
আমিও 1266
উপকৃত 1266
মেয়ের 1266
ডেভিড 1264
থাকলে 1264
দেরই 1264
ফস@@ 1264
সেলফি 1264
যনাথ 1262
ঠানিকভাবে 1261
তুষ 1261
যতে 1261
রুতি 1261
শেখ@@ 1261
শো 1261
গুজরাট 1260
ভূমিকম 1260
সারা@@ 1260
এনসিপি 1259
যুবককে 1259
অবদান 1258
ঠানিক 1258
দেশিকা 1258
এমনটা 1257
ডলীর 1257
নিয়েই 1257
বিকাশ 1257
লিয়া@@ 1257
রেখেছেন 1256
বিকল 1255
মিল 1253
সুই@@ 1253
য়ো@@ 1253
এসেছিলেন 1252
পয়@@ 1251
সেখানকার 1251
নিহতের 1250
মল 1250
লগ 1250
নিরাপদ 1249
হেফাজতে 1249
চড 1247
ঝু@@ 1247
সংবাদ@@ 1247
যোপাধ 1245
কুমারের 1244
উৎস@@ 1243
করায় 1243
গরি@@ 1243
ঘটছে 1243
বহ@@ 1243
ইরানের 1242
পরিকাঠামো 1242
থাকি 1240
নবী@@ 1240
যেকোনো 1240
পুনরায় 1239
রং 1239
রকা@@ 1239
পাঠি@@ 1238
শেখ 1238
ষিদের 1238
হও 1238
ঝুঁকি 1237
পরেও 1237
আকর 1236
পুলি@@ 1236
রাজধানী 1236
বাগ@@ 1235
রেমের 1235
লার@@ 1235
এখানেই 1234
দেবী 1232
মিলিয়ে 1232
কির 1231
পাঠ 1231
ওয়ায় 1230
ফেসবুক 1230
ো@@ 1230
খেলতে 1228
১৫@@ 1228
ইরান 1227
ছয় 1226
পাঁচটি 1226
রুপ 1226
হাউ@@ 1226
পুলিসের 1225
মহামার@@ 1225
কাহি@@ 1224
কিউ@@ 1223
রশাসিত 1223
সিটি 1223
এবারের 1222
গিত 1222
তহ@@ 1222
সেমি@@ 1222
আসল 1221
ধীদের 1221
ভেদ 1221
কিম 1220
ঁ 1219
চোখ 1218
সংগঠনের 1218
সিল 1218
ইতিহাসে 1217
ঐ@@ 1217
পাট@@ 1217
মাথা 1217
তাৎ@@ 1216
দলই 1216
নিকাণ 1216
সচেতন 1216
অবি@@ 1215
বানি@@ 1215
রেডি@@ 1214
খুলে 1213
লাতে 1213
করানো 1212
নেত 1212
পৌঁছা@@ 1212
পাঁচ@@ 1211
মাঠে 1211
সাহিত 1211
কাশ@@ 1210
কো@@ 1210
তর-পূর 1210
পরা@@ 1210
পরিক 1210
রভাবিত 1210
পুলিশ@@ 1209
য়াতে 1209
জাবের 1208
টম 1208
দান@@ 1208
ধূ@@ 1208
রিকেটে 1208
সংবাদমাধ 1208
মায 1207
সুনীল 1206
১৮@@ 1206
লাগবে 1205
পিতা 1204
পিন 1204
ফান 1204
সিসি@@ 1204
সীতার@@ 1204
গবেষণ@@ 1203
লিস 1203
কৃতির 1202
রেফতার@@ 1202
সোনিয়া 1202
যালোচনা 1201
ঊর 1200
বদল 1200
বোঝা 1200
মসূচি@@ 1200
মীয়@@ 1200
অপরের 1199
গাড়ির 1199
রাগ 1199
সারে 1199
ধব 1198
রদ@@ 1198
শাসন 1198
ধুদের 1197
ষর 1197
এসেছিল 1196
টুইটার 1196
দুজনেই 1196
বাহিনী@@ 1196
ডেল 1195
তরফ 1194
সবই 1194
আসেনি 1192
পট 1192
পৌঁছয় 1192
আবদুল 1191
আলী 1191
টেল 1191
ধানের 1191
শাস@@ 1191
সিপি@@ 1191
ছিলো 1190
দৈ@@ 1190
শুটিং 1190
টক 1189
p 1188
ধৈর 1188
পানির 1188
বাড়ি@@ 1188
শিরো@@ 1188
ষকে 1188
একইসঙ 1187
কারাগারে 1187
চালায় 1187
টকের 1187
নিকটবর 1187
বিগত 1187
সমালোচনা 1187
সাধারণত 1187
চোখে 1186
লজ 1186
করোনা@@ 1185
জওয়ান 1185
সিএ@@ 1185
করণ@@ 1184
পড়ুন 1184
দেখেন 1183
দেশনা 1183
in@@ 1182
কাতে 1182
পুলিশকর 1182
নাগ@@ 1181
জিস 1180
লিমিটেড 1180
কিছু@@ 1179
নেবেন 1179
জৈ@@ 1178
গঠিত 1177
চামচ 1177
হরিয়@@ 1177
উপকূ@@ 1176
বনাম 1176
মলা 1176
রগতি 1175
কতটা 1172
তামূলক 1172
ধন@@ 1172
লেগে 1172
অনলাইনে 1171
পিক 1171
কালো 1170
দলকে 1169
নারীর 1169
সমীক 1169
অতি 1167
চিকিৎসক 1167
বুল 1167
একত 1165
,০০০ 1163
অশোক 1163
কায 1163
ঝাড 1163
বজ 1163
বেদ@@ 1163
কলা@@ 1162
কুলদীপ 1162
খা 1162
আজকের 1161
পড়েন 1161
এড়িয়ে 1159
চী@@ 1159
ডলী@@ 1158
নিচে 1158
যিহোবাকে 1158
অশ 1157
সংসদ 1157
আলি@@ 1156
এইরকম 1156
ফেলতে 1156
লোকসভায় 1156
ঈমান 1155
বলী 1155
যাথ@@ 1155
সাইকেল 1155
বিধ 1154
কপিল 1153
নীত 1153
অভিযোগ 1152
আবারও 1152
টিউ@@ 1152
বাড়িয়ে 1151
রূপা@@ 1151
সরব 1151
ফেরত 1150
সড়@@ 1150
অপর@@ 1149
আরব 1149
ধুর 1149
বিহার@@ 1148
যামেরায় 1148
চোপড 1147
বাচনী 1147
এনসি@@ 1146
টেক 1146
ডুল@@ 1146
মুখী 1146
লিঙ 1146
সেগুলি 1146
যাংক 1145
যোগাযোগমাধ 1145
চলছিল 1144
টেক@@ 1144
তৃত 1143
বিষয়গুলো 1143
চাহিদা 1141
থনীতি 1141
যাদ@@ 1141
মানা 1140
মুসল@@ 1140
কমান 1139
হোয়া@@ 1139
কাটা 1138
থাকায় 1138
রণাল@@ 1138
ধুত 1137
মাঞ 1137
সমাজ 1136
কমিশনার 1135
বছ@@ 1135
মেয়া@@ 1135
কলকা@@ 1133
দোলন 1133
কখন 1132
গুলো@@ 1131
টসে 1131
উপকার 1129
জায 1128
জুটি 1128
বলল 1128
দাদের 1127
পাস@@ 1127
ণাটক 1125
তারি@@ 1125
তুত@@ 1125
বেগ 1125
রতিদ 1124
অভিন@@ 1123
দুজনকে 1123
1 1122
আসি@@ 1122
তফা 1122
পান@@ 1122
যাওয 1122
রিটিশ 1122
ুষ 1122
আধুনিক 1121
er@@ 1120
চির@@ 1120
জনার 1120
মানব 1120
যবসায়@@ 1120
রিয়ে 1120
পরিষ@@ 1119
যাসের 1119
রাচী@@ 1118
জমি@@ 1116
তারাও 1116
চিঠি@@ 1115
নতার 1114
রতিনিধি 1114
৩২ 1114
ইত 1113
ঘরের 1113
সুখ 1113
করলাম 1112
সাব 1112
উঠবে 1111
টেশন 1111
দফতর 1111
দোষীদের 1111
মসজি@@ 1111
রমাগত 1111
উৎসব 1110
কৃষি@@ 1110
জাত 1110
নেতার 1110
ভুগ@@ 1110
২৬ 1110
এনে 1109
ওপে@@ 1109
টেট 1109
তখনই 1109
ধে@@ 1109
বীকৃতি 1109
অবনতি 1108
আধিকারিকদের 1108
ছের 1108
তুর 1108
যেসব 1108
টিভঙ 1107
রাকৃতিক 1107
লাদা@@ 1107
হাসান 1107
অরুণ 1106
ভয়াবহ 1106
রিসভা 1105
নথি@@ 1104
যুই@@ 1104
রাকের 1104
দিই 1103
োগ 1103
অনেকটাই 1102
দেখায় 1102
হরিয়ানা 1102
দাতা 1101
বাধী@@ 1101
অভিনয 1100
এগো@@ 1100
করিয়ে 1100
জনা 1100
বাং@@ 1100
বিতীয 1100
মিশ@@ 1100
লিং@@ 1100
কৃতী@@ 1099
ঘটল 1099
তিশ@@ 1099
কৃষ@@ 1098
পুরো@@ 1098
রেশ 1098
সিঙ 1097
আ 1096
পুলিশি 1096
সুবিধা@@ 1095
অফিসার@@ 1094
ধৃত 1094
পিছ@@ 1094
বামীর 1094
যতীত 1094
যবেক 1094
ঘুরে 1093
ওয়ান 1092
আইনজীবী 1091
আসামি@@ 1091
করবো 1091
জবাবে 1091
যাকাণ 1091
শরীরের 1091
কিছুর 1090
নেয়নি 1090
ভেবে 1090
মনোযোগ 1090
হারা 1090
যদ 1089
পিটি@@ 1088
পুলিশও 1088
শিশুর 1088
অল@@ 1087
বাঁচ@@ 1087
মিলিত 1087
যথাযথ 1087
রুদ 1087
সেপ 1087
জুলাই 1086
বকা@@ 1086
দায়ক 1085
বতন 1085
এয়ার 1084
কাদের 1084
পরিবহণ 1084
রতিজ 1084
অযোধ 1083
তুল 1083
নিরা@@ 1083
ছোট@@ 1082
রহের 1082
ষতির 1082
জেরা 1081
নাগরিকদের 1081
বিনি@@ 1081
গতভাবে 1080
তিনজনকে 1079
থভাবে 1079
ঐক 1078
কৌ@@ 1078
অনলাইন 1077
পো@@ 1077
রহমান 1077
সাধ 1077
ঘোষণ@@ 1076
আজকে 1075
ছয়@@ 1075
হারি@@ 1074
তারিখ 1071
সহা@@ 1071
২টি 1071
োজনীয 1070
ঘটেনি 1069
নব@@ 1069
রঙ 1069
মেয়েদের 1068
অলিম 1067
সংসদের 1067
কয়েকদিন 1066
নিল 1066
কৌশল 1065
জী 1065
এখনই 1064
চেয 1064
তিরা 1063
জমি 1062
বাজেট 1062
শরি@@ 1062
রবে@@ 1061
সিনেমাটি 1061
যোগা@@ 1060
রমুখ 1060
পায়নি 1059
পৃথিবী 1059
অধীনে 1058
তরীণ 1058
নাগরি@@ 1058
কাস 1057
ঝড 1057
তেমনই 1057
যাগ@@ 1057
পাণ 1056
যুইট 1056
উইকেটরক 1055
জুর 1055
দেখি 1054
পাইল@@ 1054
বেশি@@ 1054
লেগেছে 1054
দুঃ@@ 1053
বিবা@@ 1053
ভিড 1053
লেট 1053
গুরু@@ 1051
মেলন 1051
বিষয়ের 1050
মতি 1050
শ-@@ 1050
-স 1049
আপন 1049
জেট@@ 1049
তৈরির 1049
মাণের 1049
অটো@@ 1048
ওয়ান@@ 1047
সিংয়ের 1047
গঠ@@ 1046
ঃ@@ 1045
উদাহরণস 1045
উৎসাহিত 1044
শিং@@ 1043
আসামিদের 1042
উৎস 1042
হইতে 1041
দফ@@ 1039
সাইট 1039
জেএন@@ 1038
টুইটে 1038
ডব 1038
বারে 1037
চুর 1036
রেম@@ 1036
সংবিধান@@ 1036
হাসি@@ 1036
অপহ@@ 1035
ষাৎ 1035
১৯৯@@ 1035
করছিল 1034
খেতে 1034
ভূষণ 1034
লড়া@@ 1034
সই@@ 1034
হকে 1033
তীয় 1032
মতামত 1032
টাল 1031
দেখাতে 1031
সাড়া 1031
কাজেই 1030
ঠীর 1030
ওজন 1029
তিনিও 1029
যুত 1029
গভী@@ 1028
ধুগণ 1028
ফেলুন 1028
সুর 1028
আউট 1027
বাঞ 1027
বিভাগে 1027
রচারে 1027
লকডাউন 1027
গামী 1026
ডাকা@@ 1026
বিনিয়ো@@ 1026
মরদেহ 1026
হারের 1026
গোলা@@ 1025
চলা 1025
জামিন 1025
টি-@@ 1025
মহামারীর 1025
মিকভাবে 1025
সুষমা 1025
ভগ@@ 1024
কেশন 1023
গনা 1023
ডাউনলোড 1023
নুল 1023
বায়ু@@ 1023
বিরোধী@@ 1023
বিলের 1023
সহজেই 1023
বাড়তে 1022
য়ান@@ 1022
উপদেষ 1021
টাকা@@ 1021
ফিক 1021
বিশেষভাবে 1021
রিকেটের 1021
নিলেন 1020
মানুষদের 1020
রাজনীতির 1020
রোগের 1020
হয়ত 1020
ঠে@@ 1019
পেলেন 1019
বিনিয়োগ 1019
মিচেল 1019
রল 1019
সামিল 1019
করছিলেন 1018
চালকের 1018
পকে 1018
শরীরে 1018
জব 1017
জেডি@@ 1017
প-@@ 1017
পরম 1017
রবর 1016
সীমা@@ 1016
অবশেষে 1015
সমূ@@ 1015
o 1014
ইতোমধ 1013
কৃষকরা 1013
মৃত@@ 1012
যাদি 1012
কণ 1011
জোরদার 1011
পুলওয়া@@ 1011
শুর 1011
য়ারা 1011
ইয়ে 1010
তেলের 1010
পরাজ@@ 1010
নওয়াজ 1009
পরো@@ 1009
মিলে 1009
বলছি 1008
শরী@@ 1008
কটাক 1007
জতে 1007
টিভি 1007
গড় 1006
তরিক 1006
উভয 1005
করতাম 1005
পরিষদের 1005
রমিকদের 1005
রিয়ঙ 1005
হঠাৎ 1005
গীতসংহিতা 1004
টু 1004
দায়ূ@@ 1004
রশাস@@ 1004
একজনের 1003
দকে 1003
ধীকে 1003
যমান 1003
আরএস@@ 1002
উইন 1002
তারাই 1002
নিয়োগ 1002
বৃন 1002
রুটি 1002
তাহ 1000
গৃহীত 999
নেস 999
মারধর 999
যুগ 999
রামীণ 999
সদাপ 999
আনার 998
কারি 998
ঞানী 998
ঢাকা 998
তাব@@ 998
নিয়েছিল 998
ৎকার 998
থাক 997
মাটিতে 997
রভ@@ 997
রাশিয়া 997
জাপ@@ 996
জিক 996
চলুন 995
চালাতে 995
তাতেই 995
যটন 995
৩১ 995
দিনটি 994
মবার 994
রাহু@@ 994
আকাশ 993
পাপ 993
জাহাজ 992
নিয়েও 992
পেয়েই 992
যানের 992
ঞাপন 991
যম@@ 991
আমরাও 989
বেশিরভাগ 989
সকাল 989
ারিং 989
এটিই 988
ওয়ে 988
দফায় 988
নভেম 988
শির 988
অধিনায 987
বেশির 987
চাইতে 986
থানীয 986
দেহটি 986
আওতায 985
টানদের 985
তুলনায় 985
নয়া 985
ভা 985
বিবরণ 984
েরও 984
মৃতদের 983
লেক 983
ঠিক@@ 982
ধৃ@@ 982
সুসমা@@ 981
মহাত 980
রাহ 980
সংশোধন 980
সিরিজে 980
n 979
চাকরি@@ 979
বালি@@ 979
জাহা@@ 978
১৬@@ 978
নিও 977
সেলের 977
উপাসনা 976
একইভাবে 976
মরণ@@ 976
l 975
দুঃখ 975
দৃঢ়@@ 975
ফায়ার 975
রকমের 975
ষয়ক 975
আকাঙ 974
ডাক@@ 974
ঢা@@ 974
মূল@@ 974
যালয়ে 974
শহী@@ 974
সামা@@ 974
পাঠিয়ে 973
মবিশ 973
সহায়@@ 973
১৪@@ 973
অরু@@ 972
বোধ@@ 972
রদায়ের 972
ফোন@@ 971
বিখ 971
মুছে 971
কাইফ 970
নেহ@@ 970
লিউ@@ 970
হয়েছি 970
ণভাবে 969
পুরনো 969
রবী@@ 969
অশান 968
বৈশিষ 968
ভাট 968
রথ@@ 968
লিয়ে 968
ষোভকারীদের 968
অবলম 967
উপাস@@ 967
রেনের 967
সেঞ 967
y@@ 966
একা 966
কেননা 966
মুসলি@@ 966
রতিবেদনে 966
সরকারী 966
y 965
ইয়া@@ 965
পড়া@@ 965
পদস 964
যুব 964
রাফা@@ 964
রুণ 964
সংশো@@ 964
অফিস 963
আগা@@ 963
আয়ো@@ 963
এদিনের 963
পোশা@@ 963
চলাকালীন 962
থাপনা 962
রমের 962
খানে 961
পেন@@ 961
ছবিটির 960
থনীতির 960
পয়েন 960
বিদেশি 960
বেক 960
লোকের 960
আইআই@@ 959
এনআরসি 959
গিদের 959
ঘাঁ@@ 959
বিনিময় 959
যাশা 959
সচি@@ 959
অজয় 958
বলবে 958
বেঁধে 958
২৯ 958
দফতরের 957
মারা@@ 957
শাসক 957
কোহলির 956
রজন 956
শৌ@@ 956
হি 956
যাদা 955
রবার 955
রশাসনিক 955
লাগার 955
আখ@@ 954
বরকে 954
শূন 953
আগুনে 952
কলের 952
বিনামূল 952
বুর 952
ওয়াই 951
মিলেছে 951
রেলের 951
সংশোধনী 951
বিভ 950
বেলা 950
রাজনীতিতে 950
ঘৃ@@ 948
তাহার 948
নিয়র 948
ষুব 948
আইসিসি 947
পশু@@ 947
যোগ 947
রতিরো@@ 947
লিখেছিলেন 947
নৈতিক 946
বীকৃত 946
যানে 946
রাশি@@ 946
ালসীমা 946
এগিয 945
দিরা 945
যাকে@@ 945
রহস 945
চালি@@ 944
বিপ@@ 944
অনুমান 943
শুক 943
জমে 942
জানু@@ 942
ভুল@@ 942
যাটিং 942
রঙ@@ 942
আওয়া@@ 941
পড়ার 941
বিধায়@@ 941
মিয়ে 941
ফরম 940
ণতা 939
বসবাস 939
বিভাগীয় 939
যাপার@@ 939
নারীদের 938
গবেষণা@@ 937
ভুবনেশ 937
সুনিশ 937
ধারাবাহি@@ 936
ভাইস 936
রুত@@ 936
কাম@@ 935
গোল@@ 935
নারী@@ 935
বজায 935
সেটাও 935
অবহিত 934
ইসলাম 934
গণকে 934
অতিক 933
দিলে 933
নিয়েছিলেন 933
পিছিয়ে 933
যেত 933
অং@@ 932
এটির 932
জনসংখ 932
জেল 932
ভাষার 932
দেহের 931
নিই 931
-ই 930
বায়ো@@ 930
রমশ 930
লড়@@ 930
অদ 929
ইট 929
জানিয়েছিলেন 929
দেশগুলির 929
সবকিছু 929
গণমাধ 928
সবথেকে 928
সল@@ 928
সহযোগি@@ 928
ঢে@@ 927
যাসো@@ 927
ড়ের 927
এয়ার@@ 926
ঞাসা 926
রান@@ 926
সেস 926
আলোচ@@ 925
চোপড়া 925
নবী 925
মহাকাশ 925
মেরে 925
রচ@@ 924
চালানোর 923
টারি 923
জেসন 922
ডলার 922
থো@@ 922
ধাওয়ান 922
নীতীশ 922
পাহা@@ 922
বেচ 922
মাতা 922
রনা@@ 922
শাহিদ 922
শুনতে 921
ষু@@ 921
নেট 920
মিডিয 920
মুখো@@ 920
হালকা 920
অতিথি 919
চলার 919
ঢুকে 919
বিধি 919
মিনি@@ 919
আসছেন 918
বলে@@ 918
বাচ@@ 918
রয়ো@@ 918
লাই 918
শুল 918
ণার 917
রোমীয় 917
j@@ 916
সুবি@@ 916
দিগকে 915
লজি 915
২৭ 914
পালিত 913
যট@@ 913
গতকাল 912
ফুট@@ 912
রত@@ 911
সরঞ 911
কথাবার 910
রপতির 910
কাগ@@ 908
যয 908
এটিকে 907
তারই 907
বাইক 907
বিতা 907
সনিয়া 907
সেনাবাহিনী 907
চমৎকার 905
সফরের 905
তোলে 904
পিতর 904
রাণিত 904
ওভার@@ 903
খানকে 903
ডিসেম 903
নাতক 903
পিয়ে 903
তুলেছে 902
বভারতীয় 902
বাচক 902
শিখর 902
ুকোন 902
ো 902
আয় 901
এটাকে 901
মণি@@ 901
মহিলাকে 900
জিং 899
জিতেছে 899
পরিপ 899
সভানেত 899
ৌ 899
en@@ 898
ঘাট@@ 898
নজরে 898
সিনহা 898
গভর 897
বলব 897
বেল 897
চৌধুরী 896
সমালোচ@@ 896
কেজরিওয়াল 895
টোর 895
পিউটার 895
রিক@@ 895
ূ 895
নিঃ@@ 894
বৈদ 894
মিস 894
যাতিতার 894
হইবে 894
তরুণ 893
বরাত 893
ভান 893
রতার@@ 893
রোগীদের 893
পরিবহন 892
যেগুলো 892
ধেও 891
ফেন 891
মেলনের 891
রীতিমত 891
4@@ 890
কপূর 890
বহন 890
যাটেল 890
জিনিস@@ 889
টেড 889
ববর 889
বাধিক 889
অনেকটা 888
এড 888
কজন 888
টাতে 888
তাঁহার 888
টুকু 887
ীতে 887
কেরল 886
পাঁচজন 886
রগ@@ 886
শাখা 886
যসভায় 885
যাগরিষ 885
শালী 885
বিভা@@ 884
যানবাহন 884
রবীন 884
রেফ@@ 884
উপকারী 883
জায়গা@@ 883
ডায়া@@ 883
থগিত 883
হাম 883
অজিত 882
জেডি 882
কখ@@ 881
কখনোই 881
তোষ 881
মানু@@ 881
সংবিধান 881
কারীর 880
তরাখণ 880
সাল 880
সেখ@@ 880
তকারী 879
নিং 879
নিয়া 879
লাগছে 879
ৗ@@ 879
আগু@@ 878
দেহভা@@ 878
পাননি 878
মুখীন 878
যমের 878
রতীক 878
ষিপ 878
বণ 877
যতের 877
সেটার 877
অসম@@ 876
আরেকটি 876
দরজা 876
মগ 876
মেও 876
হেরে 876
তীয 875
তৃণ@@ 875
বলুন 875
মরি@@ 875
ষিরা 875
সাংবাদিকদের 875
অভিযানে 874
দূরত 874
যাপন 874
রয়োগ 874
হিমাচল 874
2 873
কখনই 873
ছক 873
দিবসের 873
সাল@@ 873
হিসে@@ 873
ইনি 872
নড 872
ফিলি@@ 871
বোঝা@@ 871
সিয়ে@@ 871
ঘটেছিল 870
তামিলনাড 870
কারিনা 869
চোট 869
বাসীরা 869
কেরা@@ 868
জীবী@@ 868
ফর@@ 868
এটাও 867
তরিত 867
তুলনা 867
দিবসে 867
নাইডু 867
ভুলে 867
বইয়ে 865
বোনে@@ 865
যবসায় 865
সিনেমাতে 865
উঠছে 864
রণা@@ 864
করিনা 863
পরিপূর 863
পৌর@@ 863
বিনিয 863
২০১৮ 863
-ও 862
ছেলের 862
রাশিয়ার 862
লুক 862
শার@@ 862
অংশীদারিত 861
দখল 861
বকাপ 861
ভিল 861
রোগীর 861
in 860
চুল 860
নাটক 860
নিকট 860
পানীয় 860
পারিনি 859
বেশী 859
অংশে 858
অনুভূতি 858
বলেছি 858
ষোভে 858
ra@@ 857
আমদ@@ 857
কের@@ 857
থতার 857
বঙ 857
হতাহত 857
অভিনীত 856
ছুঁ@@ 856
তারপরই 856
ধস 856
বিসিসিআই 856
েকটি 856
কুম 855
জেমস 855
বিচারক 855
ভালবাস@@ 855
রেরণা 855
যারা@@ 854
যয়@@ 854
শিত 854
ওই@@ 853
ছাড়@@ 853
ভে 853
হৃদয় 853
জিএসটি 852
দু-@@ 852
পরিচ 852
রায়ের 852
সুদ 851
0@@ 850
ংশই 850
পতিত 850
রষ 850
রসা@@ 850
সাইকে@@ 850
সায়েন 850
সিআরপি@@ 850
h 849
খর@@ 849
মতোই 849
রজা@@ 849
য়েত 849
৬০ 849
গই 848
পরিচ@@ 848
বিধি@@ 848
রিজার 848
শাহের 848
al@@ 847
c 847
দেখিয়ে 847
কাই 846
টোবর 846
তুলেছেন 846
ুক 846
জনগণ 845
বাব@@ 845
রাজপুতের 845
একদিনের 844
এরপরেই 844
এসএম@@ 844
ছিলে 844
বিলে 844
মাঝারি 844
সোনা 844
সহজে 843
টভাবে 842
সহকারে 842
১,@@ 842
বকাপে 841
বৃহৎ 841
ভিক 841
রদানের 841
শোর 841
জাহান 840
কটে 839
কিন@@ 839
তরুণ@@ 839
শহিদ 839
াননি 839
টিভি@@ 838
বিশেষ@@ 838
গোয 837
বলবেন 837
বললে 837
অফিসি@@ 836
এলাকায 836
লাঠিচার 836
শরীর 836
আলোচনায় 835
ইডি 835
জিনিয়@@ 835
ধনের 835
সাবধান 835
হতাহতের 835
এসেছি 834
মাদ 834
দুনি@@ 833
বিকা@@ 833
জটিল 832
নৈ@@ 832
সেল@@ 832
হতা@@ 832
পিয়@@ 831
ভাস 831
রেন@@ 831
বশেষ 830
ভিতরে 830
সিম 830
সো 830
ৈ 830
গণতান 829
মস@@ 829
হতেই 829
উপায়ে 828
তামিলনা@@ 828
তারে 828
রশিদ 828
হর@@ 828
আদা@@ 827
কেবলমাত 827
ডু 827
ষকদের 827
সরবরা@@ 827
গুজরাতের 826
মেল@@ 826
জাপান 825
ডল@@ 825
তাড়া@@ 825
দূত 825
লর 825
লাভের 825
এখানকার 824
ঘটতে 824
বরাদ 824
মোকাবিলায় 824
ষত 824
কিছুতেই 823
পাতের 823
মানসি@@ 823
মোদিকে 823
আঘাতের 822
এনআই@@ 822
পৌরহিত 822
পড়েছেন 822
বোমা 822
মিশন 822
তিপূর 821
ফুটে@@ 821
মানবজা@@ 821
যপূর 821
রতিযোগিতা 821
য়ণ 821
w 820
মানি 820
সবু@@ 820
সৎ@@ 820
জওয়ান@@ 819
ঝুঁ@@ 819
হী@@ 818
চারের 817
বিনো@@ 817
রকার 817
রানে 817
লাল@@ 817
গুজরাত 816
জশি@@ 816
তেলেঙ 816
পুনরুত 816
মনির 816
মিটার 816
রইল 816
২৫@@ 816
করতেই 815
চারি@@ 815
দাঁড়িয়ে 815
ভালোভাবে 815
মিউ@@ 815
রচণ 815
ঞাসা@@ 814
শয়তান 814
হোসেন 814
কাপু@@ 813
চু 813
তোমাদেরকে 813
পারছে 813
যগুলির 813
রভঙ 813
রুর 813
লেখক 813
ষিণ@@ 813
সাদা 813
সুখী 813
সুবিধার 813
সৌরভ 813
য়ারের 813
চুপ 812
তাল 812
দেশক 812
পুঞ 812
ফুটবল 812
ভৌ@@ 812
াক 812
ডস 811
ফেব 811
যেটি 811
সেসব 811
গীর 810
ডাম 810
ভঙ 810
মনোহর 810
রাকে 810
রীড 810
সহ-@@ 810
দেননি 809
বীপ 809
রাতের 809
শীল@@ 809
উচিৎ 808
কাজটা 808
বিয 808
ানিক 808
ছুটি 807
লব 807
শং@@ 807
ওয়াত 806
যাতিতা 806
জগতে 805
ভাইরাসে 805
এও 804
ঝাঁ@@ 804
নেতা@@ 804
রকাশ@@ 804
আসামিকে 803
করিন 803
নজরদারি 803
যাহার 803
লাগল 803
শুদ 803
সৎকর 803
হিতোপদেশ 803
ওঁর 802
জানানোর 802
ৎস 802
করোনার 801
দেশবাসীকে 801
পো 801
ফোরণের 801
বাইবে@@ 801
কূট@@ 800
পৃ@@ 800
সুখ@@ 800
১৩@@ 800
ইয়ো@@ 799
ভিডিয়ো 799
রীক 799
রীমতী 799
হূ@@ 799
ঘর@@ 798
টেও 798
যাকা@@ 798
এমন@@ 797
ডিস 797
দুইজন 797
নীর 797
পটি 797
শাই@@ 797
জড়ি@@ 796
পেঁয়া@@ 796
ফেসবু@@ 796
ফোল 796
মারি 796
যুটিং 796
রিয়াল 796
সবচেয 796
আকাশ@@ 795
ঞানের 795
রযোজনা 795
শকদের 795
ডো 794
বারবার 794
রতিফ@@ 794
রোগ@@ 794
কোয়া@@ 793
ফুল 793
মনোজ 793
১৭@@ 793
উদযাপন 792
করুক 792
গো 792
জলে 792
ডান 792
নদী 792
বাসায় 792
বিবাহ 792
রীরদপ 792
আরম 791
ওটা 791
মনু@@ 791
বলো 790
যী@@ 790
কঠ@@ 789
ট-@@ 789
লোকে@@ 789
সিআই@@ 789
ণু@@ 788
মৌলিক 788
গালুরু 787
তবু 787
মতের 787
মুর 787
রাথ@@ 787
রীত 787
হতাশ 787
কাঠা@@ 786
কৃত@@ 786
খানা 786
গাছ 786
ডাস 786
ঢুক@@ 786
ধতা 786
রাজনী@@ 786
রাসী 786
সমাপ 786
উৎসা@@ 785
জরি@@ 785
মিশিয়ে 785
রীতি 785
সংকল 785
সাংবিধানিক 785
হানা 785
টেলিভিশন 784
পরিশো@@ 784
রশা@@ 784
সান@@ 784
সায় 784
ীয়@@ 784
জাল 783
পস 783
পারত 783
বাজেয়াপ 783
বিরাজ 783
নিষে@@ 782
অনেকের 781
আট 781
কথাই 781
অনুযায 780
থেমে 780
নমূলক 780
নাক@@ 780
পেয়েছিল 780
te@@ 779
টটি 779
টেডিয়া@@ 779
পৌঁছেছে 779
শিখতে 779
সাগর 779
হিসা@@ 779
এনেছে 778
নতম 778
বায়ু 778
কারী@@ 777
তাপ 777
নশীল 777
কোথা 775
ডকে 775
মিলবে 775
েক 775
এইসব 774
থতা 774
নতির 774
ষী@@ 774
সিরি@@ 774
১টি 774
আধিকারি@@ 773
দোনেশি@@ 773
বিতরণ 773
ভেঙ 773
মজবুত 773
রতিনি@@ 773
উইকে@@ 772
এবিষয়ে 772
নেতি@@ 772
হরলাল 772
আইপিএল 771
কাছেই 771
কোরিয়ার 771
তব@@ 771
তাপ@@ 771
রয়েড 771
গগ@@ 770
থানান 770
পদার 770
বোলার 770
মা-@@ 770
মানিত 770
রাখবেন 770
০০@@ 770
খোঁ@@ 769
পরিবহ@@ 769
পাথ@@ 769
বাট@@ 769
বিআই 769
ভেতরে 769
কাউ@@ 768
পিয়ন 768
রোগে 768
লকডাউনের 768
জীবিত 767
ঠাকুর 767
থাকত 767
দোকান 767
ময়না 767
লেশ 767
ষাৎ@@ 767
কতই 766
গুলো 766
জিৎ 766
দাখিল 766
পিকে 766
পড়বে 766
যাসি@@ 766
সামনের 766
েশন 766
যানার 765
গোপন 764
দেখান 764
নৌ-@@ 764
বিশ@@ 764
শয়@@ 764
তারপরেই 763
তুমুল 763
ঐশ 762
টেই 762
বাসন 762
বিজয়@@ 762
শৈ@@ 762
আয়োজিত 761
ওঠার 761
কনস 761
দয়া 761
রিপু@@ 761
টারনাল 760
বাজে@@ 760
ভাবন 760
মোকাবিলায 760
সুপারিশ 760
মেলা 759
সফল@@ 759
অভিযানের 758
তবায়@@ 758
লাভবান 758
লূক 758
অধিকা@@ 756
লাভ@@ 756
অনুমো@@ 747
f 742
গবে@@ 740
চালিত 737
শু 737
ভিডি@@ 736
রমা@@ 735
ঔ@@ 734
জু 733
আফ@@ 728
ওষু@@ 726
at@@ 724
5 721
x@@ 720
নজ@@ 718
সদের 717
পারি@@ 715
ic@@ 712
ইং@@ 708
re@@ 705
নীল 699
অংশী@@ 697
কিস 697
লক@@ 697
টিশ 693
আবহা@@ 692
গত@@ 692
এলা@@ 691
মোট@@ 691
on@@ 690
বাহি@@ 690
মরা 689
গুজ@@ 688
ইতি@@ 687
দৃ@@ 684
9@@ 682
হায 681
অনে@@ 678
রয়োজন@@ 677
য়ো 675
2@@ 674
হুম@@ 674
অংশ@@ 671
অফি@@ 671
বিদেশ@@ 671
ড়াও 671
ফা 669
ময়না@@ 669
সংসদ@@ 668
3@@ 662
আমে@@ 661
গকে 661
ানও 661
তেলে@@ 660
আকা@@ 657
ch@@ 656
পৃথিবী@@ 652
ti@@ 651
পারে@@ 644
নেশ 641
গালু@@ 636
গীয় 635
এব 634
ma@@ 633
নালে 633
লোড 629
আহমে@@ 627
চিকিৎসা@@ 626
নতু@@ 625
রাজধান@@ 619
5@@ 615
আত@@ 615
আউ@@ 612
বারও 612
নিয়ো@@ 610
যবহ@@ 609
লিম 609
গণের 606
সিবি@@ 602
নওয়া@@ 600
বিধান 595
as@@ 593
6@@ 590
ানেই 589
রয়ে@@ 584
or@@ 581
8@@ 580
name 579
জীব 579
ভীর 579
ধারা@@ 578
মোদ@@ 577
দখ@@ 576
শই 573
ur@@ 572
দনে 572
ফলা@@ 572
মোহন 572
জবা@@ 571
টিল 568
ইতিহা@@ 567
হৃ@@ 566
1@@ 562
st@@ 561
টুই@@ 557
মতা@@ 555
েস 555
জিল 554
ড-@@ 553
@ 551
বৈঠ@@ 551
হাম@@ 550
সাংবাদি@@ 548
পরিমা@@ 546
পরিকাঠা@@ 545
sh@@ 544
মেডি@@ 542
কমিশ@@ 540
াল@@ 540
7@@ 537
আঘা@@ 537
জায়@@ 537
বিপরী@@ 533
হায়@@ 532
na@@ 531
বেঁ@@ 531
রক@@ 531
দোষ@@ 529
পেছ@@ 529
হাসপাতা@@ 529
য়ই 528
চাহি@@ 526
লাইনে 525
কেজরি@@ 523
একই@@ 521
খতি@@ 521
জিনি@@ 521
সিডেন 521
অবহ@@ 520
বিসিসি@@ 520
মুল 520
হাল@@ 519
ro@@ 518
ছেই 516
কোভি@@ 510
০০০ 509
নেট@@ 508
তীত 507
পৌঁ@@ 506
বাতি@@ 506
লেনি 505
k 503
য়াব@@ 496
gb 494
ইংরে@@ 494
8 492
ষণা 492
রণা 490
তেমন@@ 487
লিমি@@ 487
; 486
রভু@@ 486
শাহরু@@ 484
it@@ 482
চাম@@ 482
মম@@ 482
জড়@@ 480
আদাল@@ 479
শূ@@ 479
নেম@@ 475
মহিলা@@ 474
g 472
gov@@ 472
le@@ 470
রাট 468
খো@@ 467
বিরোধি@@ 466
কোহ@@ 465
indi@@ 461
িলেন 461
অধিনা@@ 460
একে@@ 460
4 456
ঠে 456
দেশি@@ 452
আসে@@ 450
চেয়ার@@ 450
দিও 450
বাসীকে 448
কুন 447
সমু@@ 445
ডিজি@@ 444
মাম@@ 444
mp@@ 441
বিত@@ 439
tr@@ 438
উইকেট@@ 435
ha@@ 433
3 432
নারা 432
vi@@ 430
তর-@@ 430
মোবাই@@ 426
জখ@@ 425
ভাইরা@@ 425
ঝো@@ 423
মহারা@@ 420
de@@ 418
ঙে 418
মজ@@ 415
পুরি 413
যিহো@@ 413
u 411
ডিজে@@ 411
এনআর@@ 408
me@@ 407
পুল@@ 407
সহজ@@ 407
চম@@ 405
জরু@@ 405
মেগা@@ 405
ri@@ 402
গারে 402
ছাই 402
যায়ী 402
অনুভূ@@ 401
কোভিড-@@ 401
ফে 399
বায়@@ 399
ষো@@ 398
+ 397
ac@@ 395
টেলিভি@@ 394
জিএস@@ 393
on 390
রতী@@ 390
রমাণ@@ 390
পাতা@@ 388
ডিয়া@@ 386
se@@ 382
শুধু@@ 380
রাজন@@ 377
9 376
tion 375
di@@ 374
mo@@ 374
পিউ@@ 374
ww@@ 371
এফআই@@ 370
ca@@ 369
চৌধু@@ 369
সুপারি@@ 368
বিব@@ 367
$ 366
​ 363
b 362
খেলো@@ 354
ধুনিক 354
x 352
বিধা@@ 350
সভ@@ 350
আও@@ 349
6 348
রবিন 348
পেঁ@@ 344
বাইকে 344
শিগ@@ 344
ড়ান 343
ne@@ 342
কু 342
দীপি@@ 340
যথায@@ 340
বজা@@ 338
সৌর@@ 337
ঢ় 337
হেফা@@ 335
ৈর 335
ৰ@@ 333
0 332
ot@@ 332
অধী@@ 332
un@@ 330
অথ@@ 328
th@@ 327
বাকে 326
ইম@@ 325
v 323
জীবী 320
উদাহরণ@@ 319
সিন@@ 318
হিমা@@ 316
আপনা@@ 312
কিলো@@ 310
গীত@@ 310
100 304
সিনে@@ 302
সমী@@ 300
কপ@@ 298
উদা@@ 297
পলা@@ 296
ীত 296
me 294
মসূ@@ 293
&a@@ 292
দরা@@ 292
la@@ 287
ঘি@@ 286
মোকাবি@@ 286
10 285
ment 285
টাক 285
নজরদ@@ 285
▪ 281
পুল 280
হঠা@@ 279
z@@ 276
সেম 276
নিং@@ 275
মাদেরকে 274
মোকা@@ 274
সরা@@ 273
16 272
is@@ 272
• 272
টিটিউ@@ 270
12@@ 267
lo@@ 267
7 266
ا@@ 266
যাতি@@ 265
fi@@ 261
‎ 261
মাদের 260
লোচ@@ 258
লাঠি@@ 255
ing 253
খিল 251
দারু@@ 250
* 246
আধি@@ 245
le 244
রিদ 243
po@@ 241
খারা@@ 240
li@@ 237
`@@ 235
বলম 234
al 233
si@@ 232
ৰ 232
তীশ 230
নিকট@@ 229
বিবৃ@@ 229
আরপি@@ 227
ঢু@@ 227
জেনার@@ 226
ৈতিক 226
বিনা@@ 225
# 221
পাঁ@@ 221
48 219
অত@@ 215
চূ@@ 209
নমু@@ 209
কং@@ 208
qu@@ 207
13 206
পিছি@@ 206
আপা@@ 204
ঊ@@ 202
10@@ 201
ঝ 201
কেউ@@ 199
চিকিৎ@@ 196
-19 195
সদা@@ 195
&@@ 194
বলিউ@@ 193
অভিষে@@ 191
হিদ 188
ل@@ 187
মুস@@ 187
লূ@@ 187
bj@@ 184
12 182
go@@ 182
তিনি@@ 182
শারী@@ 179
ঢ়@@ 176
00 175
অংশীদার@@ 174
অমিতা@@ 174
ডাউন 174
ৃষ 173
2019 168
ভিটা@@ 168
32 166
370 165
উদাহ@@ 163
যাটরি@@ 163
মোতা@@ 162
bi 161
হতাহ@@ 160
..@@ 159
z 159
19@@ 156
ননা 156
গানি@@ 153
men@@ 152
জোর@@ 151
\ 148
j 148
﻿ 148
মিতা@@ 147
ñ 145
বিজে@@ 142
কয়ে@@ 141
চিম@@ 138
নেশি@@ 138
যোগাযোগ@@ 138
1.@@ 137
অনুসর@@ 137
তরী@@ 133
নিহ@@ 131
নকর 130
মুখি 130
রশি@@ 129
রেজ 129
201@@ 127
কেবল@@ 126
শিগগি@@ 126
কঠি@@ 125
و@@ 124
ডাউ@@ 123
ধাজ 123
20 122
নিজ@@ 119
মুহ@@ 116
= 114
গরিষ 112
20@@ 111
,000 108
50 106
َ@@ 105
ৃ 104
য়াপ 104
ঈ 103
রাজপু@@ 103
রামী@@ 102
ب@@ 100
` 99
লকডাউ@@ 99
30 98
মতী 98
ن@@ 97
বসের 96
م@@ 94
খারি@@ 94
বৃহ@@ 93
মিশি@@ 93
ر@@ 92
চিকি@@ 92
হেতু 92
রহিত 91
14@@ 88
40 88
বাহন 86
ঠানি@@ 85
বেদনা 85
13@@ 84
18@@ 84
25 83
যোগি@@ 83
‚ 83
16@@ 81
মু-@@ 80
ˈ@@ 79
19 78
অভিযো@@ 78
নভে@@ 78
200@@ 76
ানেত 76
ইতো@@ 74
౼ 74
^ 72
চিৎ 72
সরি 72
17 71
পাশি 71
হিতা 71
æ@@ 70
ডাউন@@ 69
ঐতিহা@@ 68
15 67
॥ 67
2.@@ 66
পরী@@ 65
15@@ 64
নয়া@@ 64
ৃঙ 64
000 63
ي@@ 63
् 63
œ 62
11 60
80 60
লোচনা 57
500 54
س@@ 54
24 52
ā@@ 52
ع@@ 52
গীতসং@@ 52
q@@ 51
ː@@ 51
ِ@@ 51
পাশা@@ 51
রভাগ 51
60 50
22 49
ت@@ 47
د@@ 47
বনেশ 46
{ 45
} 45
রদপ 45
200 44
োজন@@ 44
ة 43
14 42
ø@@ 42
œ@@ 41
ə@@ 41
♦ 41
❏ 41
· 40
а@@ 40
ن 40
তামিল@@ 40
21 39
► 39
ꦣ@@ 39
199@@ 38
◆ 38
ج@@ 37
পদেশ 36
q 35
তোই 35
যথে@@ 35
2018 34
2020 34
ر 34
চেল 34
পারিবার@@ 34
❑ 34
ه@@ 33
ُ@@ 33
ْ@@ 32
70 31
с@@ 31
ق@@ 31
ফারেন 31
¤ 30
é@@ 30
ض@@ 30
ع 30
pos@@ 29
ش@@ 29
ك@@ 29
ّ@@ 29
ð@@ 28
যোধ 28
ا 27
2016 26
× 26
р@@ 26
د 26
ی 26
 26
¦ 25
ح@@ 25
দেষ 25
18 24
ف@@ 23
ي 23
° 22
أ@@ 22
َ 22
বুও 22
সাংবিধান@@ 22
ানকার 22
1,@@ 21
£ 21
¯ 21
ɪ@@ 21
27 20
© 20
ب 20
 20
23 19
ʊ@@ 19
گ@@ 19
ی@@ 19
নোই 19
□ 19
ð 18
ت 18
خ@@ 18
■ 18
ə 17
е@@ 17
н@@ 17
ز@@ 17
ص@@ 17
پ@@ 17
ک@@ 17
− 17
ς 16
ل 16
․ 16
 16
~ 15
ɑ@@ 15
а 15
ہ@@ 15
বুত 15
› 15
28 14
­ 14
ÿ@@ 14
ʃ@@ 14
ρ@@ 14
ذ@@ 14
ߦ 14
ವ@@ 14
€ 14
ó@@ 13
ø 13
ʌ@@ 13
л@@ 13
م 13
ৱ@@ 13
ˌ@@ 12
и@@ 12
т@@ 12
் 12
် 12
29 11
¡ 11
β@@ 11
μ@@ 11
к@@ 11
ط@@ 11
ْ 11
ہ 11
» 10
ɔ@@ 10
́ 10
ν@@ 10
м@@ 10
إ@@ 10
ٹ@@ 10
আফগানি@@ 10
বাণি@@ 10
শুভে@@ 10
হিতো@@ 10
ৗ 10
ા@@ 10
க@@ 10
ಾ@@ 10
₹ 10
❖ 10
31 9
ü@@ 9
˦ 9
ο@@ 9
б@@ 9
о@@ 9
ה@@ 9
ى 9
অতঃ@@ 9
ੰ@@ 9
દ@@ 9
ન@@ 9
ಿ 9
26 8
º 8
í@@ 8
ό@@ 8
ь@@ 8
י@@ 8
ه 8
ُ 8
ۍ 8
़ 8
঩ 8
ி 8
ಜ@@ 8
ಿ@@ 8
း@@ 8
ñ@@ 7
ù@@ 7
ō@@ 7
ɛ@@ 7
̃ 7
ε@@ 7
ι@@ 7
τ@@ 7
й 7
п@@ 7
у@@ 7
ِ 7
क 7
ट 7
কিছ@@ 7
ণত 7
৳ 7
ਾ@@ 7
ર@@ 7
ಣ@@ 7
ಯ@@ 7
က@@ 7
♪ 7
➢ 7
ô@@ 6
ī 6
ī@@ 6
ɡ@@ 6
θ@@ 6
ύ@@ 6
ھ 6
रा 6
ह@@ 6
ঊ 6
একেবার@@ 6
তরাখ@@ 6
সাংবা@@ 6
ਜ@@ 6
ਪ@@ 6
ા 6
ರ@@ 6
್ 6
് 6
් 6
ြ@@ 6
♫ 6
 6
è@@ 5
š@@ 5
ɒ@@ 5
ɳ@@ 5
α@@ 5
κ@@ 5
φ@@ 5
в@@ 5
о 5
ы@@ 5
ו@@ 5
ق 5
چ@@ 5
ک 5
त 5
द@@ 5
दा@@ 5
नगर 5
ब@@ 5
मा@@ 5
ली 5
वे@@ 5
स@@ 5
લ@@ 5
હ@@ 5
ட@@ 5
ര@@ 5
ပ@@ 5
ḥ@@ 5
≤ 5
ッ@@ 5
本 5
東@@ 5
quot@@ 4
´ 4
á 4
á@@ 4
ä@@ 4
ç@@ 4
ê@@ 4
ā 4
ŋ 4
ɛ 4
ʁ@@ 4
ʋ@@ 4
ʒ@@ 4
д@@ 4
и 4
ִ@@ 4
ב@@ 4
ה 4
ל@@ 4
ס@@ 4
ء 4
آ@@ 4
ح 4
خ 4
ظ@@ 4
غ@@ 4
ف 4
و 4
ى@@ 4
ٍ 4
ߠ@@ 4
आ@@ 4
ञ 4
ण@@ 4
ति@@ 4
ना@@ 4
नि@@ 4
बा@@ 4
र 4
राष 4
ल 4
हस 4
ि 4
ঐতি@@ 4
পৃথি@@ 4
ৄ@@ 4
ਬ 4
ਸ@@ 4
ਿ@@ 4
અ@@ 4
ગ@@ 4
ર 4
વ@@ 4
ી 4
ે 4
ે@@ 4
ப@@ 4
ா@@ 4
ு@@ 4
ಮ@@ 4
་ 4
င 4
ည 4
န@@ 4
ယ 4
ေ@@ 4
ṁ@@ 4
ṛ@@ 4
₱ 4
○ 4
❍ 4
す@@ 4
る 4
エ@@ 4
武@@ 4
 4
 4
³ 3
í 3
ú@@ 3
ı 3
ŋ@@ 3
ū@@ 3
ƒ 3
ɐ@@ 3
ɑ 3
ɖ@@ 3
ɪ 3
ɾ@@ 3
ʰ@@ 3
ʻ@@ 3
ʿ@@ 3
̯ 3
͡ 3
β 3
γ@@ 3
λ@@ 3
ξ@@ 3
π 3
π@@ 3
σ@@ 3
ω 3
ω@@ 3
г@@ 3
т 3
ф@@ 3
х@@ 3
ת 3
ء@@ 3
ئ@@ 3
ڈ@@ 3
ڑ@@ 3
ھ@@ 3
ۦ 3
ަ 3
ग@@ 3
चल 3
दे@@ 3
न 3
पु@@ 3
म 3
म@@ 3
मध 3
य@@ 3
रिकेट 3
ला 3
विकास 3
षेत 3
ਬ@@ 3
ੀ@@ 3
ં@@ 3
સ@@ 3
ங 3
ர@@ 3
ல@@ 3
ಂ@@ 3
ತ@@ 3
ನ@@ 3
ಮ 3
ೆ@@ 3
ത@@ 3
ാ@@ 3
ു@@ 3
ර 3
ා@@ 3
ခ@@ 3
တ@@ 3
ယ@@ 3
ာ@@ 3
ိ@@ 3
ု@@ 3
ἀ@@ 3
‏ 3
™ 3
≡ 3
国 3
州 3
市 3
日 3
星 3
福@@ 3
舠@@ 3
路 3
邑 3
ꠣ@@ 3
읍 3
ﷺ 3
124@@ 2
¥ 2
§ 2
à@@ 2
â@@ 2
æ 2
é 2
õ@@ 2
ö@@ 2
ý 2
č@@ 2
ē@@ 2
ı@@ 2
ś@@ 2
ź@@ 2
ž@@ 2
ɔ 2
ɕ@@ 2
ɗ@@ 2
ɣ@@ 2
ɰ 2
ʂ@@ 2
ʈ@@ 2
ʊ 2
ʔ@@ 2
ʘ 2
ʲ@@ 2
ː 2
̀ 2
̌ 2
̩ 2
̪ 2
͠ 2
ά 2
ά@@ 2
ί@@ 2
η@@ 2
θ 2
ν 2
υ@@ 2
й@@ 2
к 2
н 2
у 2
ц@@ 2
я 2
ְ@@ 2
ָ@@ 2
ּ@@ 2
א@@ 2
ג@@ 2
ד 2
מ@@ 2
ן 2
נ@@ 2
פ@@ 2
ר@@ 2
، 2
ؤ@@ 2
ث@@ 2
ج 2
ز 2
س 2
ص 2
ض 2
ك 2
ً@@ 2
ٌ 2
ٹ 2
ځ@@ 2
ږ@@ 2
ژ@@ 2
ښ@@ 2
ګ@@ 2
گ 2
ں 2
ې@@ 2
ۡ@@ 2
खे@@ 2
गो@@ 2
ङ 2
ज 2
जा@@ 2
जि@@ 2
जिद 2
जिला 2
जी 2
नाग@@ 2
नेपाल 2
पद 2
पा@@ 2
पी@@ 2
पुर 2
पूर 2
बरी 2
भा@@ 2
भारत 2
भारतीय 2
मस 2
महिला 2
मार@@ 2
यम 2
रम 2
रि@@ 2
रिय 2
री 2
रीय 2
ल@@ 2
वाड 2
वास 2
वि@@ 2
वी@@ 2
श 2
शिवसेना 2
स 2
संघ 2
हा@@ 2
ा 2
ी 2
ঋ 2
ৠ@@ 2
ਐ@@ 2
ਕ@@ 2
ਡ@@ 2
ਦ@@ 2
ਰ@@ 2
ਸ 2
ਾ 2
ੀ 2
ੋ@@ 2
੍ 2
ੱ@@ 2
ભ@@ 2
ண 2
ன@@ 2
ப 2
ய@@ 2
ல 2
ொ@@ 2
ಟ 2
ು 2
ು@@ 2
ೊ 2
ം 2
ന 2
ി@@ 2
േ@@ 2
ක 2
ග@@ 2
න@@ 2
ම@@ 2
ර@@ 2
ල 2
ව@@ 2
හ 2
ු@@ 2
ร@@ 2
ག 2
ဒ@@ 2
မ@@ 2
သ@@ 2
ီ@@ 2
း 2
ḏ@@ 2
ḥ 2
ṣ@@ 2
ṭ@@ 2
ồ@@ 2
∆ 2
≥ 2
⊞ 2
◇ 2
● 2
☞ 2
✔ 2
⟺ 2
に@@ 2
ん 2
チ 2
チ@@ 2
三@@ 2
京@@ 2
兰@@ 2
券@@ 2
區 2
博@@ 2
取@@ 2
哈@@ 2
唐 2
天 2
天@@ 2
宫@@ 2
尔@@ 2
島 2
弁@@ 2
引@@ 2
所 2
手 2
故@@ 2
日@@ 2
栦 2
洞 2
滨 2
物@@ 2
皇 2
空@@ 2
紫@@ 2
藏@@ 2
証 2
証@@ 2
郡 2
里 2
院 2
青@@ 2
面 2
꠆ 2
ꠉ@@ 2
ꠘ 2
ꠟ@@ 2
구 2
군 2
동 2
리 2
면 2
시 2
한@@ 2
 2
 2
ｈ@@ 2
🍆 2
🔛 2
🙏 2
² 1
µ@@ 1
¹ 1
º@@ 1
¼ 1
½ 1
ã@@ 1
ä 1
å@@ 1
ê 1
ì@@ 1
ò@@ 1
ù 1
đ@@ 1
ě@@ 1
ğ@@ 1
ġ@@ 1
ō 1
ş@@ 1
š 1
ū 1
ǎ 1
ǎ@@ 1
ǐ@@ 1
ǜ 1
ɐ 1
ɜ@@ 1
ɥ@@ 1
ɫ 1
ɴ 1
ɽ@@ 1
ʁ 1
ʎ@@ 1
ʑ@@ 1
ʕ@@ 1
ʰ 1
ʼ@@ 1
ʾ@@ 1
ʿ 1
̂ 1
̠ 1
̰ 1
έ@@ 1
ή 1
α 1
λ 1
σ 1
υ 1
χ@@ 1
б 1
в 1
е 1
ж 1
ж@@ 1
з 1
з@@ 1
м 1
ч 1
ы 1
ю@@ 1
я@@ 1
җ@@ 1
ә@@ 1
ִ 1
ֵ@@ 1
ֶ@@ 1
ַ@@ 1
ׁ@@ 1
ב 1
ט@@ 1
כ@@ 1
ע 1
ע@@ 1
ר 1
ש@@ 1
ת@@ 1
ة@@ 1
ث 1
ظ 1
ٌ@@ 1
ّ 1
ٰ@@ 1
ٽ@@ 1
پ 1
ڬ@@ 1
ڵ 1
ۇ@@ 1
ۋ@@ 1
ە@@ 1
ۙ 1
ۡ 1
ܦ@@ 1
ܪ@@ 1
ܬ 1
ंक 1
ंड@@ 1
अज@@ 1
अना@@ 1
अफ 1
अरुण 1
अस 1
इंडियन 1
इन 1
एक 1
एसोसिएशन 1
औ@@ 1
कर@@ 1
का 1
का@@ 1
कांग 1
कारी 1
कि@@ 1
कु@@ 1
ख 1
खा 1
गड 1
गढ 1
गा@@ 1
गि@@ 1
घा@@ 1
चंडी@@ 1
चा 1
चि@@ 1
चु@@ 1
छे@@ 1
ज@@ 1
जय 1
जी@@ 1
टी 1
टेक 1
टेडियम 1
ड 1
डा@@ 1
डिया 1
णी 1
ता@@ 1
ताज 1
ति 1
ती 1
तु@@ 1
था 1
दार 1
दू@@ 1
ध@@ 1
धर 1
धा 1
ना 1
नाथ 1
निक 1
ने@@ 1
प 1
पश 1
पह@@ 1
पुरा 1
पो@@ 1
फि@@ 1
ब 1
बनर 1
बस 1
भर@@ 1
मं@@ 1
मंडल 1
मह@@ 1
मु@@ 1
मुंबई 1
मुक 1
मेट 1
मोर 1
य 1
य-@@ 1
या 1
यू@@ 1
रदेश 1
रमा@@ 1
रा@@ 1
राम 1
राम@@ 1
राय@@ 1
राव 1
रू@@ 1
रे@@ 1
रेल 1
रेस 1
रै@@ 1
रो 1
रोन 1
लिक 1
लिम 1
लु@@ 1
ले@@ 1
ळ 1
वं@@ 1
वायु 1
वासी 1
विका@@ 1
शन 1
शा 1
शी 1
शू@@ 1
ष@@ 1
सह@@ 1
सूर 1
सेना 1
ह 1
हरा@@ 1
हा 1
हिमाचल 1
हो@@ 1
ान 1
ी@@ 1
ै@@ 1
ो 1
ोड 1
নিষি@@ 1
সুতরা@@ 1
ৃদ 1
য়াবহ 1
ৢ@@ 1
ৱ 1
৻ 1
ਂ 1
ਅ@@ 1
ਆ@@ 1
ਈ 1
ਏ@@ 1
ਕ 1
ਖ@@ 1
ਗ@@ 1
ਚ@@ 1
ਟ 1
ਟ@@ 1
ਣ@@ 1
ਨ 1
ਮ 1
ਮ@@ 1
ਹ 1
ਹ@@ 1
਼ 1
ੇ@@ 1
ੜ 1
ક 1
ઠ@@ 1
ડ@@ 1
ણ 1
ત 1
પ@@ 1
મ@@ 1
ય@@ 1
ળ 1
િ@@ 1
ી@@ 1
ો@@ 1
அ@@ 1
ட 1
ன 1
ம 1
ழ@@ 1
ு 1
న@@ 1
ప@@ 1
మ@@ 1
ర@@ 1
ల@@ 1
ు 1
ే@@ 1
ಗ 1
ಗ@@ 1
ತ 1
ದ 1
ದ@@ 1
ಪ@@ 1
ಬ@@ 1
ರ 1
ಲ@@ 1
ಳ@@ 1
ವ 1
ೂ@@ 1
ೇ@@ 1
അ@@ 1
ആ@@ 1
ഖ 1
ജ@@ 1
ട 1
ഡ@@ 1
ന@@ 1
പ@@ 1
യ@@ 1
ര 1
റ 1
റ@@ 1
ല@@ 1
വ 1
വ@@ 1
ഷ 1
സ 1
ു 1
ං@@ 1
ක@@ 1
ජ@@ 1
ට 1
ඩ@@ 1
ණ@@ 1
ත 1
ත@@ 1
න 1
ය 1
ය@@ 1
ි@@ 1
ී@@ 1
ก@@ 1
ต@@ 1
ม@@ 1
ย@@ 1
า@@ 1
ิ 1
ี@@ 1
เ@@ 1
์ 1
ཀ 1
ཀ@@ 1
ག@@ 1
ང 1
བ@@ 1
ར 1
ར@@ 1
ལ 1
ས@@ 1
ི@@ 1
ུ@@ 1
ོ@@ 1
ྦ@@ 1
ྲ@@ 1
န 1
ရ@@ 1
လ@@ 1
ူ@@ 1
ဲ@@ 1
္ 1
ျ@@ 1
ွ@@ 1
ᑦ 1
ᓄ@@ 1
ᓇ@@ 1
ᕗ@@ 1
ᵻ@@ 1
ḗ 1
ḩ@@ 1
ằ@@ 1
ἑ@@ 1
ᾳ 1
ῆ 1
ῆ@@ 1
‐ 1
„ 1
‟ 1
‪ 1
⁠ 1
↑ 1
↓ 1
∕ 1
∪ 1
▸ 1
★ 1
♠ 1
⛽ 1
➲ 1
い 1
さ 1
た 1
っ@@ 1
ほ@@ 1
ぽ@@ 1
ま 1
グ@@ 1
サ@@ 1
ス@@ 1
ト@@ 1
プ 1
プ@@ 1
ラ@@ 1
リ@@ 1
ル 1
ン 1
ン@@ 1
ー@@ 1
中@@ 1
丹@@ 1
九@@ 1
会@@ 1
俠@@ 1
倭 1
倭@@ 1
加@@ 1
南 1
南@@ 1
卷 1
古@@ 1
名@@ 1
品@@ 1
国@@ 1
圖 1
坡 1
垣 1
墨 1
多@@ 1
夜@@ 1
宁 1
寺 1
小@@ 1
屋 1
峰 1
島@@ 1
巴 1
并 1
幹 1
建 1
式@@ 1
微@@ 1
成@@ 1
才@@ 1
新@@ 1
晋@@ 1
朗@@ 1
本@@ 1
林 1
株@@ 1
汉 1
河 1
河@@ 1
淡 1
港 1
漢 1
照@@ 1
王 1
珠@@ 1
瑪@@ 1
田@@ 1
白@@ 1
県 1
社@@ 1
穆@@ 1
筑@@ 1
綠 1
緑 1
羅@@ 1
芝 1
菩@@ 1
薩 1
藍 1
西 1
說 1
財@@ 1
金@@ 1
鎮@@ 1
鐵@@ 1
铁@@ 1
阳 1
際@@ 1
韓@@ 1
食@@ 1
ꠀ@@ 1
ꠁ@@ 1
ꠇ@@ 1
ꠎ 1
ꠖ@@ 1
ꠙ@@ 1
ꠤ 1
ꠥ@@ 1
공@@ 1
과 1
국 1
국@@ 1
대@@ 1
물@@ 1
민@@ 1
백@@ 1
사 1
산 1
삼@@ 1
성 1
어 1
위@@ 1
키@@ 1
 1
 1
﴾ 1
﴿ 1
🔴 1
🟢 1
madeupword0000 0
madeupword0001 0
madeupword0002 0
madeupword0003 0
